{
  "version": "1.0",
  "truncation": null,
  "padding": null,
  "added_tokens": [
    {
      "id": 0,
      "content": "[UNK]",
      "single_word": false,
      "lstrip": false,
      "rstrip": false,
      "normalized": false,
      "special": true
    },
    {
      "id": 1,
      "content": "[CLS]",
      "single_word": false,
      "lstrip": false,
      "rstrip": false,
      "normalized": false,
      "special": true
    },
    {
      "id": 2,
      "content": "[SEP]",
      "single_word": false,
      "lstrip": false,
      "rstrip": false,
      "normalized": false,
      "special": true
    },
    {
      "id": 3,
      "content": "[PAD]",
      "single_word": false,
      "lstrip": false,
      "rstrip": false,
      "normalized": false,
      "special": true
    },
    {
      "id": 4,
      "content": "[MASK]",
      "single_word": false,
      "lstrip": false,
      "rstrip": false,
      "normalized": false,
      "special": true
    }
  ],
  "normalizer": null,
  "pre_tokenizer": {
    "type": "Whitespace"
  },
  "post_processor": null,
  "decoder": null,
  "model": {
    "type": "BPE",
    "dropout": null,
    "unk_token": "[UNK]",
    "continuing_subword_prefix": null,
    "end_of_word_suffix": null,
    "fuse_unk": false,
    "byte_fallback": false,
    "vocab": {
      "[UNK]": 0,
      "[CLS]": 1,
      "[SEP]": 2,
      "[PAD]": 3,
      "[MASK]": 4,
      "!": 5,
      "\"": 6,
      "&": 7,
      "'": 8,
      "(": 9,
      ")": 10,
      ",": 11,
      "-": 12,
      ".": 13,
      "0": 14,
      "1": 15,
      "2": 16,
      "3": 17,
      "4": 18,
      "6": 19,
      "7": 20,
      "8": 21,
      ":": 22,
      ";": 23,
      "?": 24,
      "A": 25,
      "B": 26,
      "C": 27,
      "D": 28,
      "E": 29,
      "F": 30,
      "G": 31,
      "H": 32,
      "I": 33,
      "J": 34,
      "K": 35,
      "L": 36,
      "M": 37,
      "N": 38,
      "O": 39,
      "P": 40,
      "Q": 41,
      "R": 42,
      "S": 43,
      "T": 44,
      "U": 45,
      "V": 46,
      "W": 47,
      "X": 48,
      "Y": 49,
      "[": 50,
      "]": 51,
      "_": 52,
      "`": 53,
      "a": 54,
      "b": 55,
      "c": 56,
      "d": 57,
      "e": 58,
      "f": 59,
      "g": 60,
      "h": 61,
      "i": 62,
      "j": 63,
      "k": 64,
      "l": 65,
      "m": 66,
      "n": 67,
      "o": 68,
      "p": 69,
      "q": 70,
      "r": 71,
      "s": 72,
      "t": 73,
      "u": 74,
      "v": 75,
      "w": 76,
      "x": 77,
      "y": 78,
      "z": 79,
      "he": 80,
      "in": 81,
      "an": 82,
      "re": 83,
      "ou": 84,
      "the": 85,
      "on": 86,
      "er": 87,
      "ha": 88,
      "to": 89,
      "it": 90,
      "en": 91,
      "is": 92,
      "as": 93,
      "ing": 94,
      "and": 95,
      "ed": 96,
      "be": 97,
      "of": 98,
      "ll": 99,
      "no": 100,
      "at": 101,
      "or": 102,
      "ar": 103,
      "le": 104,
      "st": 105,
      "th": 106,
      "se": 107,
      "--": 108,
      "om": 109,
      "ver": 110,
      "her": 111,
      "ld": 112,
      "ve": 113,
      "hat": 114,
      "ch": 115,
      "not": 116,
      "was": 117,
      "gh": 118,
      "you": 119,
      "ly": 120,
      "es": 121,
      "ould": 122,
      "im": 123,
      "ion": 124,
      "ut": 125,
      "de": 126,
      "she": 127,
      "ce": 128,
      "for": 129,
      "Mr": 130,
      "ri": 131,
      "su": 132,
      "ent": 133,
      "ay": 134,
      "al": 135,
      "that": 136,
      "we": 137,
      "all": 138,
      "ght": 139,
      "had": 140,
      "very": 141,
      "ith": 142,
      "me": 143,
      "ma": 144,
      "with": 145,
      "ir": 146,
      "so": 147,
      "id": 148,
      "ct": 149,
      "ow": 150,
      "have": 151,
      "od": 152,
      "li": 153,
      "ther": 154,
      "fe": 155,
      "ill": 156,
      "wh": 157,
      "mu": 158,
      "his": 159,
      ".\"": 160,
      "but": 161,
      "ne": 162,
      "et": 163,
      "ab": 164,
      "com": 165,
      "ad": 166,
      "ag": 167,
      "mo": 168,
      "con": 169,
      "pe": 170,
      "ur": 171,
      "ro": 172,
      "him": 173,
      "sa": 174,
      "qu": 175,
      "ter": 176,
      "po": 177,
      "am": 178,
      "do": 179,
      "Em": 180,
      "Emma": 181,
      "un": 182,
      "are": 183,
      "any": 184,
      "now": 185,
      "ight": 186,
      "thing": 187,
      "could": 188,
      "would": 189,
      "one": 190,
      "ain": 191,
      "art": 192,
      "ke": 193,
      "been": 194,
      "lf": 195,
      "per": 196,
      "est": 197,
      "our": 198,
      "lo": 199,
      "arri": 200,
      "ation": 201,
      ".--": 202,
      "ood": 203,
      "fa": 204,
      "my": 205,
      "ex": 206,
      "end": 207,
      "if": 208,
      "out": 209,
      "Mrs": 210,
      "The": 211,
      "ess": 212,
      "iss": 213,
      "lt": 214,
      "whi": 215,
      "sh": 216,
      "self": 217,
      "ac": 218,
      "were": 219,
      "fr": 220,
      "ple": 221,
      "ss": 222,
      "Miss": 223,
      "ome": 224,
      "will": 225,
      "ant": 226,
      "te": 227,
      "pre": 228,
      "able": 229,
      "ic": 230,
      "ind": 231,
      "She": 232,
      "must": 233,
      "by": 234,
      "way": 235,
      "from": 236,
      "know": 237,
      "which": 238,
      "ra": 239,
      "Harri": 240,
      "ul": 241,
      "Harriet": 242,
      "pro": 243,
      "see": 244,
      "whe": 245,
      "said": 246,
      "ard": 247,
      "itt": 248,
      "He": 249,
      "ink": 250,
      "nd": 251,
      "more": 252,
      "what": 253,
      "ry": 254,
      "them": 255,
      "thou": 256,
      "ate": 257,
      "there": 258,
      "man": 259,
      "own": 260,
      "than": 261,
      "ap": 262,
      "much": 263,
      "fo": 264,
      "ure": 265,
      "ment": 266,
      "night": 267,
      "gre": 268,
      "think": 269,
      "ite": 270,
      "hou": 271,
      ",\"": 272,
      "West": 273,
      "dis": 274,
      "Weston": 275,
      "pl": 276,
      "house": 277,
      "such": 278,
      "some": 279,
      "this": 280,
      "It": 281,
      "who": 282,
      "can": 283,
      "your": 284,
      "us": 285,
      "up": 286,
      "ong": 287,
      "lton": 288,
      "ive": 289,
      "Elton": 290,
      "every": 291,
      "other": 292,
      "they": 293,
      "ho": 294,
      "ok": 295,
      "well": 296,
      "ance": 297,
      "never": 298,
      "el": 299,
      "ev": 300,
      "say": 301,
      "ley": 302,
      "hap": 303,
      "Knight": 304,
      "Knightley": 305,
      "should": 306,
      "red": 307,
      "ge": 308,
      "part": 309,
      "wor": 310,
      "ittle": 311,
      "little": 312,
      "most": 313,
      "being": 314,
      "good": 315,
      "spe": 316,
      "ally": 317,
      "il": 318,
      "ity": 319,
      "fore": 320,
      "alk": 321,
      "ort": 322,
      "ous": 323,
      "!--": 324,
      "tim": 325,
      "only": 326,
      "ta": 327,
      "did": 328,
      "go": 329,
      "great": 330,
      "ob": 331,
      "der": 332,
      "fri": 333,
      "fi": 334,
      "med": 335,
      "af": 336,
      "Wood": 337,
      "Woodhouse": 338,
      "age": 339,
      "when": 340,
      "ju": 341,
      "air": 342,
      "ran": 343,
      "ru": 344,
      "might": 345,
      "ane": 346,
      "tter": 347,
      "look": 348,
      "friend": 349,
      "ast": 350,
      "pleas": 351,
      "day": 352,
      "their": 353,
      "Jane": 354,
      "ving": 355,
      "sha": 356,
      "You": 357,
      "ody": 358,
      "sure": 359,
      "quite": 360,
      "ca": 361,
      "But": 362,
      "herself": 363,
      "hur": 364,
      "ble": 365,
      "ved": 366,
      "happ": 367,
      "thought": 368,
      "ness": 369,
      "sp": 370,
      "body": 371,
      "how": 372,
      "ction": 373,
      "feel": 374,
      "ence": 375,
      "pt": 376,
      "like": 377,
      "co": 378,
      "ert": 379,
      "time": 380,
      "fort": 381,
      "too": 382,
      "gr": 383,
      "ish": 384,
      "again": 385,
      "ren": 386,
      "about": 387,
      "has": 388,
      "before": 389,
      "sent": 390,
      "int": 391,
      "ways": 392,
      "read": 393,
      "Chur": 394,
      "Church": 395,
      "ide": 396,
      "Churchill": 397,
      "?\"": 398,
      "ough": 399,
      "ful": 400,
      "Fair": 401,
      "nothing": 402,
      "fax": 403,
      "Fairfax": 404,
      "fir": 405,
      "use": 406,
      "long": 407,
      "ci": 408,
      "tur": 409,
      "under": 410,
      "its": 411,
      "ser": 412,
      "igh": 413,
      "ner": 414,
      "ning": 415,
      "always": 416,
      "And": 417,
      "ine": 418,
      "even": 419,
      "ever": 420,
      "op": 421,
      "ten": 422,
      "rank": 423,
      "soon": 424,
      "shall": 425,
      "come": 426,
      "may": 427,
      "ect": 428,
      "inde": 429,
      "dear": 430,
      "cl": 431,
      "ng": 432,
      "first": 433,
      "just": 434,
      "hed": 435,
      "ass": 436,
      "ound": 437,
      "?--": 438,
      "att": 439,
      "Frank": 440,
      "We": 441,
      "pr": 442,
      "ak": 443,
      "pos": 444,
      "want": 445,
      "without": 446,
      "father": 447,
      "ree": 448,
      "tw": 449,
      "Oh": 450,
      "ible": 451,
      "har": 452,
      "made": 453,
      "ear": 454,
      "ice": 455,
      "ire": 456,
      "eld": 457,
      "cons": 458,
      "young": 459,
      "ies": 460,
      "bo": 461,
      "after": 462,
      "ward": 463,
      "talk": 464,
      "ings": 465,
      "ily": 466,
      "beg": 467,
      "sup": 468,
      "um": 469,
      "ctly": 470,
      "indeed": 471,
      "No": 472,
      "ise": 473,
      "give": 474,
      "ious": 475,
      "anc": 476,
      "ond": 477,
      "lad": 478,
      "mor": 479,
      "though": 480,
      "turn": 481,
      "ertain": 482,
      "rest": 483,
      "tre": 484,
      "oun": 485,
      "field": 486,
      "ject": 487,
      "Bat": 488,
      "then": 489,
      "over": 490,
      "!\"": 491,
      "sen": 492,
      "new": 493,
      "poss": 494,
      "two": 495,
      "led": 496,
      "into": 497,
      "spect": 498,
      "ck": 499,
      "tt": 500,
      "light": 501,
      "here": 502,
      "better": 503,
      "ighb": 504,
      "sm": 505,
      "off": 506,
      "ought": 507,
      "stand": 508,
      "ans": 509,
      "vis": 510,
      "walk": 511,
      "wom": 512,
      "wish": 513,
      "ions": 514,
      "dou": 515,
      "iness": 516,
      "make": 517,
      "ig": 518,
      "Hart": 519,
      "appe": 520,
      "bt": 521,
      "ged": 522,
      "Hartfield": 523,
      "dif": 524,
      "ken": 525,
      "cannot": 526,
      "Bates": 527,
      "pass": 528,
      "himself": 529,
      "letter": 530,
      "cour": 531,
      "done": 532,
      "bell": 533,
      "sub": 534,
      "des": 535,
      "speak": 536,
      "doubt": 537,
      "rather": 538,
      "pri": 539,
      "love": 540,
      "certain": 541,
      "beli": 542,
      "feren": 543,
      "came": 544,
      "kind": 545,
      "really": 546,
      "happy": 547,
      "upon": 548,
      "Co": 549,
      "son": 550,
      "sit": 551,
      "seemed": 552,
      "jo": 553,
      "take": 554,
      "They": 555,
      "mom": 556,
      "tell": 557,
      "ular": 558,
      "moment": 559,
      "mind": 560,
      "less": 561,
      "au": 562,
      "ven": 563,
      "having": 564,
      "comm": 565,
      "ated": 566,
      "sol": 567,
      "hear": 568,
      "word": 569,
      "ave": 570,
      "cre": 571,
      "ined": 572,
      "sat": 573,
      "enough": 574,
      "cc": 575,
      "comfort": 576,
      "coun": 577,
      "gi": 578,
      "br": 579,
      "cont": 580,
      "woman": 581,
      "wever": 582,
      "hope": 583,
      "pose": 584,
      "There": 585,
      "tru": 586,
      "room": 587,
      "ull": 588,
      "does": 589,
      "sto": 590,
      "king": 591,
      "ber": 592,
      "comp": 593,
      "ep": 594,
      "cri": 595,
      ";--": 596,
      "mar": 597,
      "home": 598,
      "right": 599,
      "manner": 600,
      "nat": 601,
      "present": 602,
      "rep": 603,
      "ury": 604,
      "away": 605,
      "ared": 606,
      "che": 607,
      "pleasure": 608,
      "many": 609,
      "far": 610,
      "bl": 611,
      "gu": 612,
      "hand": 613,
      "ace": 614,
      "ider": 615,
      "while": 616,
      "possible": 617,
      "vi": 618,
      "get": 619,
      "ately": 620,
      "eng": 621,
      "obli": 622,
      "ary": 623,
      "ild": 624,
      "last": 625,
      "mis": 626,
      "Highb": 627,
      "Highbury": 628,
      "going": 629,
      "tem": 630,
      "call": 631,
      "aint": 632,
      "ither": 633,
      "vo": 634,
      "heard": 635,
      "consider": 636,
      "wr": 637,
      "saw": 638,
      "however": 639,
      "What": 640,
      "ready": 641,
      "sort": 642,
      "felt": 643,
      "half": 644,
      "morning": 645,
      "point": 646,
      "acqu": 647,
      "gen": 648,
      "full": 649,
      "agree": 650,
      "yet": 651,
      "occ": 652,
      "nex": 653,
      "hour": 654,
      "mat": 655,
      "My": 656,
      "aw": 657,
      "arm": 658,
      "cept": 659,
      "coming": 660,
      "ist": 661,
      "same": 662,
      "gent": 663,
      "ile": 664,
      "few": 665,
      "ced": 666,
      "till": 667,
      "ach": 668,
      "fer": 669,
      "understand": 670,
      "ably": 671,
      "perfe": 672,
      "sur": 673,
      "myself": 674,
      "arriage": 675,
      "aid": 676,
      "feelings": 677,
      "still": 678,
      "ations": 679,
      "pect": 680,
      "icular": 681,
      "particular": 682,
      "Sm": 683,
      "another": 684,
      "eve": 685,
      "gener": 686,
      "wards": 687,
      "Mart": 688,
      "Martin": 689,
      "How": 690,
      "haps": 691,
      "ose": 692,
      "count": 693,
      "This": 694,
      "ior": 695,
      "where": 696,
      "visit": 697,
      "cle": 698,
      "often": 699,
      "compl": 700,
      "poor": 701,
      "subject": 702,
      "If": 703,
      "imag": 704,
      "party": 705,
      "child": 706,
      "lic": 707,
      "par": 708,
      "mer": 709,
      "ult": 710,
      "posed": 711,
      "ask": 712,
      "attent": 713,
      "alls": 714,
      "mean": 715,
      "In": 716,
      "thr": 717,
      "allow": 718,
      "idea": 719,
      "expect": 720,
      "believe": 721,
      "fl": 722,
      "deal": 723,
      "delight": 724,
      "press": 725,
      "certainly": 726,
      "oh": 727,
      "toge": 728,
      "imp": 729,
      "together": 730,
      "cha": 731,
      "fic": 732,
      "Per": 733,
      "old": 734,
      "inst": 735,
      "lied": 736,
      "Yes": 737,
      "fam": 738,
      "jud": 739,
      "Smith": 740,
      "ack": 741,
      "ince": 742,
      "inte": 743,
      "yes": 744,
      "return": 745,
      "best": 746,
      "interest": 747,
      "ople": 748,
      "din": 749,
      "--\"": 750,
      "satis": 751,
      "acquaint": 752,
      "find": 753,
      "prob": 754,
      "Her": 755,
      "down": 756,
      "people": 757,
      "spir": 758,
      "ished": 759,
      "place": 760,
      "medi": 761,
      "affe": 762,
      "found": 763,
      "appear": 764,
      "Joh": 765,
      "qual": 766,
      "marry": 767,
      "John": 768,
      "person": 769,
      "something": 770,
      "gentle": 771,
      "Rand": 772,
      "adm": 773,
      "Well": 774,
      "hard": 775,
      "perhaps": 776,
      "Randalls": 777,
      "differen": 778,
      "open": 779,
      "ix": 780,
      "sense": 781,
      "ang": 782,
      "immedi": 783,
      "almost": 784,
      "evening": 785,
      "char": 786,
      "heart": 787,
      "those": 788,
      "amp": 789,
      "whole": 790,
      "conf": 791,
      "ase": 792,
      "ves": 793,
      "begin": 794,
      "suppose": 795,
      "une": 796,
      "else": 797,
      "cried": 798,
      "knew": 799,
      "side": 800,
      "bet": 801,
      "vour": 802,
      "taken": 803,
      "looked": 804,
      "nor": 805,
      "world": 806,
      "super": 807,
      "Cole": 808,
      "put": 809,
      "both": 810,
      "ason": 811,
      "cess": 812,
      "friends": 813,
      "cir": 814,
      "min": 815,
      "mother": 816,
      "ety": 817,
      "ref": 818,
      "respect": 819,
      "ied": 820,
      "since": 821,
      "ue": 822,
      "replied": 823,
      "suf": 824,
      "course": 825,
      "spo": 826,
      "seen": 827,
      "back": 828,
      "sor": 829,
      "least": 830,
      "obliged": 831,
      "year": 832,
      "won": 833,
      "add": 834,
      "unt": 835,
      "once": 836,
      "short": 837,
      "That": 838,
      "ming": 839,
      "resol": 840,
      "str": 841,
      "ef": 842,
      "odd": 843,
      "wanted": 844,
      "wi": 845,
      "ick": 846,
      "dist": 847,
      "Perry": 848,
      "gone": 849,
      "ped": 850,
      "ery": 851,
      "iment": 852,
      "dire": 853,
      "used": 854,
      "Camp": 855,
      "bro": 856,
      "adv": 857,
      "treme": 858,
      "Campbell": 859,
      "cause": 860,
      "lady": 861,
      "given": 862,
      "inv": 863,
      "cei": 864,
      "grat": 865,
      "ired": 866,
      "mon": 867,
      "reason": 868,
      "extreme": 869,
      "family": 870,
      "superior": 871,
      "priz": 872,
      "ract": 873,
      "wife": 874,
      "reg": 875,
      "agreeable": 876,
      "immediately": 877,
      "mus": 878,
      "ower": 879,
      "cond": 880,
      "wonder": 881,
      "ceed": 882,
      "meet": 883,
      "ited": 884,
      "life": 885,
      "raw": 886,
      "prom": 887,
      "care": 888,
      "dec": 889,
      "ame": 890,
      "act": 891,
      "told": 892,
      "ition": 893,
      "prett": 894,
      "obser": 895,
      "happiness": 896,
      "carriage": 897,
      "opin": 898,
      "ft": 899,
      "ility": 900,
      "contin": 901,
      "foll": 902,
      "whom": 903,
      "cum": 904,
      "wer": 905,
      "account": 906,
      "answer": 907,
      "chan": 908,
      "sir": 909,
      "three": 910,
      "Su": 911,
      "looking": 912,
      "hardly": 913,
      "pretty": 914,
      "cold": 915,
      "bus": 916,
      "pend": 917,
      "bey": 918,
      "situ": 919,
      "joy": 920,
      "affection": 921,
      "em": 922,
      "ween": 923,
      "aim": 924,
      "sc": 925,
      "ided": 926,
      "natur": 927,
      "Isa": 928,
      "aut": 929,
      "hen": 930,
      "sett": 931,
      "bella": 932,
      "surpriz": 933,
      "Isabella": 934,
      "proper": 935,
      "Do": 936,
      "persu": 937,
      "known": 938,
      "val": 939,
      "between": 940,
      "row": 941,
      "warm": 942,
      "ern": 943,
      "sorry": 944,
      "left": 945,
      "agement": 946,
      "through": 947,
      "minut": 948,
      "next": 949,
      "general": 950,
      "strong": 951,
      "dau": 952,
      "either": 953,
      "sel": 954,
      "ghter": 955,
      "mem": 956,
      "odu": 957,
      "extremely": 958,
      "cumst": 959,
      "daughter": 960,
      "men": 961,
      "comple": 962,
      "inter": 963,
      "pi": 964,
      "claim": 965,
      "cu": 966,
      "circumst": 967,
      "equal": 968,
      "assure": 969,
      "children": 970,
      "therefore": 971,
      "towards": 972,
      "let": 973,
      "fair": 974,
      "remem": 975,
      "favour": 976,
      "perfectly": 977,
      "conc": 978,
      "longer": 979,
      "opinion": 980,
      "coll": 981,
      "knowled": 982,
      "fully": 983,
      "acquaintance": 984,
      "tri": 985,
      "whether": 986,
      "talked": 987,
      "tempt": 988,
      "quest": 989,
      "situation": 990,
      "lor": 991,
      "ature": 992,
      "change": 993,
      "afr": 994,
      "ging": 995,
      "ses": 996,
      "began": 997,
      "afraid": 998,
      "draw": 999,
      "door": 1000,
      "shew": 1001,
      "spirits": 1002,
      "bear": 1003,
      "sens": 1004,
      "To": 1005,
      "usu": 1006,
      "ins": 1007,
      "continu": 1008,
      "ek": 1009,
      "because": 1010,
      "things": 1011,
      "feeling": 1012,
      "ances": 1013,
      "selves": 1014,
      "So": 1015,
      "ib": 1016,
      "power": 1017,
      "irl": 1018,
      "pleasant": 1019,
      "rel": 1020,
      "ign": 1021,
      "beaut": 1022,
      "gave": 1023,
      "girl": 1024,
      "seem": 1025,
      "others": 1026,
      "eved": 1027,
      "follow": 1028,
      "making": 1029,
      "imagine": 1030,
      "necess": 1031,
      "hor": 1032,
      "passed": 1033,
      "ceived": 1034,
      "ip": 1035,
      "ude": 1036,
      "ution": 1037,
      "soci": 1038,
      "safe": 1039,
      "usual": 1040,
      "tach": 1041,
      "true": 1042,
      "brother": 1043,
      "aunt": 1044,
      "glad": 1045,
      "attach": 1046,
      "play": 1047,
      "smile": 1048,
      "Godd": 1049,
      "exc": 1050,
      "Goddard": 1051,
      "actly": 1052,
      "den": 1053,
      "ty": 1054,
      "state": 1055,
      "need": 1056,
      "wa": 1057,
      "asion": 1058,
      "dare": 1059,
      "ient": 1060,
      "ating": 1061,
      "degre": 1062,
      "got": 1063,
      "degree": 1064,
      "CH": 1065,
      "ye": 1066,
      "head": 1067,
      "arried": 1068,
      "thinking": 1069,
      "vers": 1070,
      "susp": 1071,
      "manners": 1072,
      "attention": 1073,
      "natural": 1074,
      "nobody": 1075,
      "qui": 1076,
      "saying": 1077,
      "appeared": 1078,
      "diffic": 1079,
      "difficult": 1080,
      "Don": 1081,
      "ol": 1082,
      "sil": 1083,
      "set": 1084,
      "aged": 1085,
      "compliment": 1086,
      "form": 1087,
      "yourself": 1088,
      "CHA": 1089,
      "anx": 1090,
      "seeing": 1091,
      "leg": 1092,
      "week": 1093,
      "express": 1094,
      "years": 1095,
      "bad": 1096,
      "eyes": 1097,
      "fin": 1098,
      "ER": 1099,
      "PT": 1100,
      "iled": 1101,
      "pleased": 1102,
      "satisfi": 1103,
      "CHAPT": 1104,
      "CHAPTER": 1105,
      "Very": 1106,
      "mention": 1107,
      "bring": 1108,
      "different": 1109,
      "clo": 1110,
      "stay": 1111,
      "cious": 1112,
      "brought": 1113,
      "ew": 1114,
      "ial": 1115,
      "near": 1116,
      "ead": 1117,
      "thank": 1118,
      "worth": 1119,
      "nature": 1120,
      "voice": 1121,
      "each": 1122,
      "tra": 1123,
      "leave": 1124,
      "conv": 1125,
      "beginning": 1126,
      "Tay": 1127,
      "cor": 1128,
      "these": 1129,
      "alth": 1130,
      "Taylor": 1131,
      "lar": 1132,
      "pur": 1133,
      "port": 1134,
      "ached": 1135,
      "among": 1136,
      "small": 1137,
      "cheer": 1138,
      "view": 1139,
      "business": 1140,
      "round": 1141,
      "ancy": 1142,
      "satisfied": 1143,
      "itude": 1144,
      "deter": 1145,
      "except": 1146,
      "disap": 1147,
      "particularly": 1148,
      "name": 1149,
      "giving": 1150,
      "called": 1151,
      "hum": 1152,
      "lau": 1153,
      "vent": 1154,
      "ret": 1155,
      "exactly": 1156,
      "days": 1157,
      "charact": 1158,
      "character": 1159,
      "requ": 1160,
      "itation": 1161,
      "means": 1162,
      "keep": 1163,
      "itting": 1164,
      "walked": 1165,
      "hon": 1166,
      "depend": 1167,
      "ended": 1168,
      "plan": 1169,
      "iting": 1170,
      "serious": 1171,
      "minutes": 1172,
      "attachment": 1173,
      "month": 1174,
      "ces": 1175,
      "married": 1176,
      "pain": 1177,
      "ually": 1178,
      "ute": 1179,
      "meant": 1180,
      "gentleman": 1181,
      "directly": 1182,
      "Such": 1183,
      "suspic": 1184,
      "entire": 1185,
      "serv": 1186,
      "disappoint": 1187,
      "His": 1188,
      "fond": 1189,
      "swe": 1190,
      "hel": 1191,
      "enjoy": 1192,
      "talking": 1193,
      "som": 1194,
      "ister": 1195,
      "tress": 1196,
      "dinner": 1197,
      "anger": 1198,
      "isten": 1199,
      "fine": 1200,
      "beyond": 1201,
      "remember": 1202,
      "bre": 1203,
      "engaged": 1204,
      "matter": 1205,
      "awk": 1206,
      "Donwell": 1207,
      "cho": 1208,
      "walking": 1209,
      "occasion": 1210,
      "Lond": 1211,
      "ding": 1212,
      "res": 1213,
      "cted": 1214,
      "doing": 1215,
      "music": 1216,
      "London": 1217,
      "lay": 1218,
      "tend": 1219,
      "convers": 1220,
      "creature": 1221,
      "As": 1222,
      "lone": 1223,
      "ened": 1224,
      "fortune": 1225,
      "company": 1226,
      "fancy": 1227,
      "ted": 1228,
      "incl": 1229,
      "regard": 1230,
      "ection": 1231,
      "recomm": 1232,
      "forward": 1233,
      "complete": 1234,
      "lonel": 1235,
      "ting": 1236,
      "went": 1237,
      "health": 1238,
      "real": 1239,
      "acy": 1240,
      "Colonel": 1241,
      "decided": 1242,
      "concern": 1243,
      "danc": 1244,
      "listen": 1245,
      "pat": 1246,
      "cell": 1247,
      "likely": 1248,
      "society": 1249,
      "honour": 1250,
      "For": 1251,
      "pen": 1252,
      "imes": 1253,
      "object": 1254,
      "plo": 1255,
      "took": 1256,
      "raise": 1257,
      "decl": 1258,
      "deser": 1259,
      "Ah": 1260,
      "Dix": 1261,
      "try": 1262,
      "Dixon": 1263,
      "When": 1264,
      "cure": 1265,
      "wished": 1266,
      "already": 1267,
      "fortun": 1268,
      "question": 1269,
      "Wh": 1270,
      "eas": 1271,
      "wat": 1272,
      "encour": 1273,
      "mere": 1274,
      "delightful": 1275,
      "settled": 1276,
      "convin": 1277,
      "eleg": 1278,
      "turning": 1279,
      "wel": 1280,
      "quar": 1281,
      "appro": 1282,
      "ched": 1283,
      "dre": 1284,
      "sing": 1285,
      "ised": 1286,
      "believed": 1287,
      "words": 1288,
      "returned": 1289,
      "help": 1290,
      "evil": 1291,
      "conscious": 1292,
      "common": 1293,
      "kes": 1294,
      "low": 1295,
      "etimes": 1296,
      "pay": 1297,
      "run": 1298,
      "suspect": 1299,
      "excell": 1300,
      "app": 1301,
      "speaking": 1302,
      "engagement": 1303,
      "asked": 1304,
      "persuad": 1305,
      "early": 1306,
      "comfortable": 1307,
      "expected": 1308,
      "suffer": 1309,
      "lu": 1310,
      "stood": 1311,
      "compan": 1312,
      "determ": 1313,
      ".'": 1314,
      "band": 1315,
      "danger": 1316,
      "gment": 1317,
      "iable": 1318,
      "conce": 1319,
      "acknowled": 1320,
      "supposed": 1321,
      "entirely": 1322,
      "sometimes": 1323,
      "ather": 1324,
      "bed": 1325,
      "hus": 1326,
      "sequ": 1327,
      "ager": 1328,
      "possib": 1329,
      "sy": 1330,
      "ination": 1331,
      "themselves": 1332,
      "ively": 1333,
      "hoped": 1334,
      "necessary": 1335,
      "conversation": 1336,
      "II": 1337,
      "high": 1338,
      "sister": 1339,
      "impossible": 1340,
      "plain": 1341,
      "ference": 1342,
      "collect": 1343,
      "convinced": 1344,
      "iling": 1345,
      "Every": 1346,
      "five": 1347,
      "tr": 1348,
      "rema": 1349,
      "ified": 1350,
      "farther": 1351,
      "eager": 1352,
      "intim": 1353,
      "ities": 1354,
      "sum": 1355,
      "ently": 1356,
      "accept": 1357,
      "quiet": 1358,
      "sweet": 1359,
      "whose": 1360,
      "afterwards": 1361,
      "continued": 1362,
      "Now": 1363,
      "ece": 1364,
      "neighb": 1365,
      "morrow": 1366,
      "letters": 1367,
      "kindness": 1368,
      "probably": 1369,
      "cheerful": 1370,
      "neighbour": 1371,
      "nic": 1372,
      "sitting": 1373,
      "against": 1374,
      "temper": 1375,
      ",--": 1376,
      "One": 1377,
      "pap": 1378,
      "stru": 1379,
      "yest": 1380,
      "erday": 1381,
      "ending": 1382,
      "ladies": 1383,
      "meaning": 1384,
      "anxious": 1385,
      "yesterday": 1386,
      "ler": 1387,
      "wrong": 1388,
      "spoke": 1389,
      "added": 1390,
      "Rob": 1391,
      "ience": 1392,
      "miss": 1393,
      "ago": 1394,
      "knows": 1395,
      "turned": 1396,
      "circumstance": 1397,
      "husband": 1398,
      "uct": 1399,
      "met": 1400,
      "itted": 1401,
      "fix": 1402,
      "appearance": 1403,
      "thor": 1404,
      "usion": 1405,
      "grand": 1406,
      "assist": 1407,
      "truth": 1408,
      "advant": 1409,
      "Robert": 1410,
      "ered": 1411,
      "gra": 1412,
      "iful": 1413,
      "wanting": 1414,
      "Will": 1415,
      "rid": 1416,
      "live": 1417,
      "why": 1418,
      "consequ": 1419,
      "quick": 1420,
      "range": 1421,
      "mark": 1422,
      "guess": 1423,
      "allowed": 1424,
      "charming": 1425,
      "At": 1426,
      "ball": 1427,
      "difference": 1428,
      "meeting": 1429,
      "dread": 1430,
      "pa": 1431,
      "aste": 1432,
      "face": 1433,
      "thoughts": 1434,
      "cap": 1435,
      "marriage": 1436,
      "beha": 1437,
      "sty": 1438,
      "loved": 1439,
      "import": 1440,
      "papa": 1441,
      "With": 1442,
      "hes": 1443,
      "stop": 1444,
      "surprized": 1445,
      "large": 1446,
      "utely": 1447,
      "determined": 1448,
      "ade": 1449,
      "ush": 1450,
      "fear": 1451,
      "excellent": 1452,
      "case": 1453,
      "outh": 1454,
      "os": 1455,
      "regre": 1456,
      "rove": 1457,
      "distress": 1458,
      "obliging": 1459,
      "di": 1460,
      "slight": 1461,
      "forget": 1462,
      "munic": 1463,
      "communic": 1464,
      "amiable": 1465,
      "sho": 1466,
      "proceed": 1467,
      "produ": 1468,
      "Not": 1469,
      "news": 1470,
      "perfect": 1471,
      "intell": 1472,
      "received": 1473,
      "neither": 1474,
      "difficulty": 1475,
      "ploy": 1476,
      "En": 1477,
      "taste": 1478,
      "ained": 1479,
      "ship": 1480,
      "position": 1481,
      "handsome": 1482,
      "satisfa": 1483,
      "curi": 1484,
      ",)": 1485,
      "four": 1486,
      "grow": 1487,
      "excuse": 1488,
      "laugh": 1489,
      "fortunate": 1490,
      "osity": 1491,
      "please": 1492,
      "boy": 1493,
      "judgment": 1494,
      "ris": 1495,
      "sight": 1496,
      "ordin": 1497,
      "wered": 1498,
      "instru": 1499,
      "employ": 1500,
      "recommend": 1501,
      "mile": 1502,
      "scom": 1503,
      "second": 1504,
      ".--\"": 1505,
      "hop": 1506,
      "Enscom": 1507,
      "Enscombe": 1508,
      "cy": 1509,
      "attempt": 1510,
      "fect": 1511,
      "clever": 1512,
      "fast": 1513,
      "praise": 1514,
      "rodu": 1515,
      "secre": 1516,
      "introdu": 1517,
      "civ": 1518,
      "occur": 1519,
      "flu": 1520,
      "Ma": 1521,
      "pon": 1522,
      "sad": 1523,
      "incre": 1524,
      "les": 1525,
      "absol": 1526,
      "ross": 1527,
      "antly": 1528,
      "says": 1529,
      "surprize": 1530,
      "luck": 1531,
      "instrument": 1532,
      "cal": 1533,
      "ray": 1534,
      "reser": 1535,
      "greatest": 1536,
      "hurry": 1537,
      "dancing": 1538,
      "ili": 1539,
      "mort": 1540,
      "und": 1541,
      "prof": 1542,
      "aware": 1543,
      "interesting": 1544,
      "resolution": 1545,
      "conduct": 1546,
      "break": 1547,
      "Grove": 1548,
      "On": 1549,
      "ration": 1550,
      "ught": 1551,
      "oud": 1552,
      "fault": 1553,
      "looks": 1554,
      "smiling": 1555,
      "Maple": 1556,
      "Ab": 1557,
      "ling": 1558,
      "mas": 1559,
      "wise": 1560,
      "ded": 1561,
      "const": 1562,
      "connex": 1563,
      "uring": 1564,
      "offer": 1565,
      "acquainted": 1566,
      "persuaded": 1567,
      ",'": 1568,
      "hint": 1569,
      "late": 1570,
      "tory": 1571,
      "chuse": 1572,
      "enty": 1573,
      "weather": 1574,
      "indif": 1575,
      "plac": 1576,
      "months": 1577,
      "regret": 1578,
      "bit": 1579,
      "pity": 1580,
      "justice": 1581,
      "join": 1582,
      "probation": 1583,
      "sensible": 1584,
      "Some": 1585,
      "eye": 1586,
      "hesit": 1587,
      "event": 1588,
      "work": 1589,
      "match": 1590,
      "judge": 1591,
      "absolutely": 1592,
      "rown": 1593,
      "influ": 1594,
      "delay": 1595,
      "hours": 1596,
      "refle": 1597,
      "reasonable": 1598,
      "toler": 1599,
      "ash": 1600,
      "road": 1601,
      "worse": 1602,
      "admir": 1603,
      "gratitude": 1604,
      "ordinary": 1605,
      "Your": 1606,
      "iz": 1607,
      "rup": 1608,
      "indu": 1609,
      "times": 1610,
      "hearing": 1611,
      "mentioned": 1612,
      "merely": 1613,
      "inqu": 1614,
      "comes": 1615,
      "loss": 1616,
      "taking": 1617,
      "eness": 1618,
      "mot": 1619,
      "approbation": 1620,
      "companion": 1621,
      "struck": 1622,
      "style": 1623,
      "curiosity": 1624,
      ":--": 1625,
      "dest": 1626,
      "dered": 1627,
      "confid": 1628,
      "followed": 1629,
      "completely": 1630,
      "consequence": 1631,
      "\"--": 1632,
      "law": 1633,
      "ouble": 1634,
      "entered": 1635,
      "conven": 1636,
      "proof": 1637,
      "passion": 1638,
      "distin": 1639,
      "Po": 1640,
      "infer": 1641,
      "grate": 1642,
      "ground": 1643,
      "occup": 1644,
      "circumstances": 1645,
      "beauty": 1646,
      "Poor": 1647,
      "dden": 1648,
      "vain": 1649,
      "wind": 1650,
      "ark": 1651,
      "stead": 1652,
      "sudden": 1653,
      "extra": 1654,
      "generally": 1655,
      "effect": 1656,
      "table": 1657,
      "knowing": 1658,
      "greater": 1659,
      "ficient": 1660,
      "gentlemen": 1661,
      "easy": 1662,
      "advantage": 1663,
      "Upon": 1664,
      "cise": 1665,
      "land": 1666,
      "none": 1667,
      "sche": 1668,
      "delic": 1669,
      "ples": 1670,
      "hold": 1671,
      "cially": 1672,
      "blind": 1673,
      "marrying": 1674,
      "spoken": 1675,
      "resolved": 1676,
      "enjoyment": 1677,
      "trouble": 1678,
      "secret": 1679,
      "Crown": 1680,
      "Let": 1681,
      "bri": 1682,
      "wis": 1683,
      "remo": 1684,
      "espe": 1685,
      "mad": 1686,
      "ames": 1687,
      "tea": 1688,
      "prevent": 1689,
      "prospect": 1690,
      "understanding": 1691,
      "delighted": 1692,
      "thorough": 1693,
      "intellig": 1694,
      "twenty": 1695,
      "silent": 1696,
      "humour": 1697,
      "Th": 1698,
      "amu": 1699,
      "gall": 1700,
      "ror": 1701,
      "ingly": 1702,
      "ath": 1703,
      "suit": 1704,
      "indul": 1705,
      "prove": 1706,
      "command": 1707,
      "viour": 1708,
      "horses": 1709,
      "behaviour": 1710,
      "satisfaction": 1711,
      "especially": 1712,
      "gallant": 1713,
      "Af": 1714,
      "alarm": 1715,
      "parties": 1716,
      "descri": 1717,
      "consideration": 1718,
      "spirit": 1719,
      "tried": 1720,
      "wait": 1721,
      "worthy": 1722,
      "summer": 1723,
      "influence": 1724,
      "After": 1725,
      "dut": 1726,
      "nt": 1727,
      "pu": 1728,
      "ries": 1729,
      "bless": 1730,
      "understood": 1731,
      "write": 1732,
      "regular": 1733,
      "actually": 1734,
      "Hawk": 1735,
      "cred": 1736,
      "due": 1737,
      "fall": 1738,
      "gri": 1739,
      "ying": 1740,
      "sult": 1741,
      "attached": 1742,
      "answered": 1743,
      "telling": 1744,
      "country": 1745,
      "invitation": 1746,
      "drawing": 1747,
      "purpose": 1748,
      "tender": 1749,
      "Hawkins": 1750,
      "Dear": 1751,
      "car": 1752,
      "ph": 1753,
      "uc": 1754,
      "hamed": 1755,
      "ashamed": 1756,
      "notice": 1757,
      "spite": 1758,
      "attentions": 1759,
      "Be": 1760,
      "gg": 1761,
      "hood": 1762,
      "tran": 1763,
      "hend": 1764,
      "repe": 1765,
      "belong": 1766,
      "ceive": 1767,
      "prehend": 1768,
      "spee": 1769,
      "blush": 1770,
      "Hen": 1771,
      "cou": 1772,
      "hind": 1773,
      "lead": 1774,
      "deed": 1775,
      "nest": 1776,
      "Here": 1777,
      "deserve": 1778,
      "quarter": 1779,
      "conceal": 1780,
      "amuse": 1781,
      "Henry": 1782,
      "sed": 1783,
      "send": 1784,
      "wret": 1785,
      "anof": 1786,
      "ende": 1787,
      "became": 1788,
      "orte": 1789,
      "hers": 1790,
      "vere": 1791,
      "alone": 1792,
      "pleasing": 1793,
      "attend": 1794,
      "pianof": 1795,
      "highly": 1796,
      "fixed": 1797,
      "extraordinary": 1798,
      "pianoforte": 1799,
      "sim": 1800,
      "ines": 1801,
      "resh": 1802,
      "remark": 1803,
      "within": 1804,
      "fact": 1805,
      "disposition": 1806,
      "hopes": 1807,
      "reflection": 1808,
      "admiration": 1809,
      "bor": 1810,
      "ot": 1811,
      "educ": 1812,
      "fered": 1813,
      "ages": 1814,
      "sake": 1815,
      "exclaim": 1816,
      "disco": 1817,
      "earnest": 1818,
      "priv": 1819,
      "hands": 1820,
      "beautiful": 1821,
      "couple": 1822,
      "Had": 1823,
      "iety": 1824,
      "lately": 1825,
      "reed": 1826,
      "note": 1827,
      "solic": 1828,
      "cture": 1829,
      "arent": 1830,
      "ific": 1831,
      "thinks": 1832,
      "fice": 1833,
      "intent": 1834,
      "inferior": 1835,
      "endea": 1836,
      "mine": 1837,
      "rain": 1838,
      "inci": 1839,
      "ank": 1840,
      "reat": 1841,
      "ased": 1842,
      "secure": 1843,
      "chance": 1844,
      "princi": 1845,
      "presently": 1846,
      "distance": 1847,
      "weeks": 1848,
      "service": 1849,
      "important": 1850,
      "jection": 1851,
      "wed": 1852,
      "congrat": 1853,
      "Campbells": 1854,
      "formation": 1855,
      "trying": 1856,
      "profess": 1857,
      "congratul": 1858,
      "amus": 1859,
      "cceed": 1860,
      "gl": 1861,
      "lan": 1862,
      "reco": 1863,
      "succeed": 1864,
      "willing": 1865,
      "prev": 1866,
      "instead": 1867,
      "observe": 1868,
      "seems": 1869,
      "servant": 1870,
      "welcome": 1871,
      "Abbey": 1872,
      "iam": 1873,
      "snow": 1874,
      "ching": 1875,
      "former": 1876,
      "promise": 1877,
      "scar": 1878,
      "knowledge": 1879,
      "possibility": 1880,
      "William": 1881,
      "miles": 1882,
      "duty": 1883,
      "Bo": 1884,
      "tired": 1885,
      "tor": 1886,
      "ising": 1887,
      "edly": 1888,
      "step": 1889,
      "vered": 1890,
      "convi": 1891,
      "lost": 1892,
      "observ": 1893,
      "claims": 1894,
      "collection": 1895,
      "disappointment": 1896,
      "grateful": 1897,
      "credit": 1898,
      "sand": 1899,
      "wit": 1900,
      "oured": 1901,
      "ative": 1902,
      "deep": 1903,
      "forgot": 1904,
      "rive": 1905,
      "itten": 1906,
      "contr": 1907,
      "written": 1908,
      "Suck": 1909,
      "eat": 1910,
      "ni": 1911,
      "information": 1912,
      "separ": 1913,
      "lived": 1914,
      "fell": 1915,
      "lose": 1916,
      "whenever": 1917,
      "standing": 1918,
      "mistaken": 1919,
      "favourite": 1920,
      "elegant": 1921,
      "consciousness": 1922,
      "Ex": 1923,
      "equ": 1924,
      "sigh": 1925,
      "assu": 1926,
      "lly": 1927,
      "atter": 1928,
      "deare": 1929,
      "opport": 1930,
      "desir": 1931,
      "pressed": 1932,
      "views": 1933,
      "awkward": 1934,
      "intimacy": 1935,
      "conviction": 1936,
      "Have": 1937,
      "lour": 1938,
      "mouth": 1939,
      "num": 1940,
      "ering": 1941,
      "behind": 1942,
      "altogether": 1943,
      "Indeed": 1944,
      "charge": 1945,
      "suspicion": 1946,
      "encouragement": 1947,
      "rational": 1948,
      "window": 1949,
      "wretched": 1950,
      "Eng": 1951,
      "dance": 1952,
      "wn": 1953,
      "recollect": 1954,
      "town": 1955,
      "ork": 1956,
      "makes": 1957,
      "ability": 1958,
      "unhappy": 1959,
      "thousand": 1960,
      "vol": 1961,
      "mater": 1962,
      "confess": 1963,
      "sufficient": 1964,
      "scarce": 1965,
      "bu": 1966,
      "ers": 1967,
      "ens": 1968,
      "arrange": 1969,
      "also": 1970,
      "prepar": 1971,
      "evid": 1972,
      "friendship": 1973,
      "shock": 1974,
      "wishes": 1975,
      "sof": 1976,
      "six": 1977,
      "anity": 1978,
      "arily": 1979,
      "severe": 1980,
      "liken": 1981,
      "endure": 1982,
      "prefer": 1983,
      "women": 1984,
      "licity": 1985,
      "silence": 1986,
      "disappointed": 1987,
      "inclination": 1988,
      "growing": 1989,
      "master": 1990,
      "connexion": 1991,
      "repeated": 1992,
      "simple": 1993,
      "An": 1994,
      "mod": 1995,
      "ual": 1996,
      "abl": 1997,
      "concl": 1998,
      "accompl": 1999,
      "Eltons": 2000,
      "fire": 2001,
      "happened": 2002,
      "grac": 2003,
      "independ": 2004,
      "wishing": 2005,
      "trust": 2006,
      "imagined": 2007,
      "smallest": 2008,
      "confidence": 2009,
      "lines": 2010,
      "wro": 2011,
      "tot": 2012,
      "order": 2013,
      "neg": 2014,
      "kept": 2015,
      "peri": 2016,
      "log": 2017,
      "worst": 2018,
      "spent": 2019,
      "finite": 2020,
      "listened": 2021,
      "civil": 2022,
      "opportun": 2023,
      "wrote": 2024,
      "Hill": 2025,
      "Is": 2026,
      "James": 2027,
      "rate": 2028,
      "stren": 2029,
      "sun": 2030,
      "agreed": 2031,
      "consent": 2032,
      "rade": 2033,
      "fright": 2034,
      "ption": 2035,
      "fortnight": 2036,
      "gust": 2037,
      "calling": 2038,
      "charade": 2039,
      "respectable": 2040,
      "Why": 2041,
      "scheme": 2042,
      "apo": 2043,
      "fit": 2044,
      "mix": 2045,
      "phe": 2046,
      "tou": 2047,
      "tone": 2048,
      "onsense": 2049,
      "prov": 2050,
      "proved": 2051,
      "friendly": 2052,
      "clear": 2053,
      "picture": 2054,
      "reserve": 2055,
      "speech": 2056,
      "endeavour": 2057,
      "Good": 2058,
      "bar": 2059,
      "ms": 2060,
      "comprehend": 2061,
      "exer": 2062,
      "exert": 2063,
      "reading": 2064,
      "useful": 2065,
      "thrown": 2066,
      "While": 2067,
      "Can": 2068,
      "Nob": 2069,
      "Of": 2070,
      "bert": 2071,
      "cut": 2072,
      "cross": 2073,
      "gard": 2074,
      "hig": 2075,
      "ides": 2076,
      "happily": 2077,
      "posing": 2078,
      "ccess": 2079,
      "mistake": 2080,
      "scarcely": 2081,
      "streng": 2082,
      "Nobody": 2083,
      "cur": 2084,
      "mid": 2085,
      "success": 2086,
      "liar": 2087,
      "prep": 2088,
      "presu": 2089,
      "disagreeable": 2090,
      "compar": 2091,
      "observed": 2092,
      "culiar": 2093,
      "waiting": 2094,
      "inquir": 2095,
      "period": 2096,
      "opportunity": 2097,
      "avo": 2098,
      "uncle": 2099,
      "disposed": 2100,
      "otherwise": 2101,
      "ishing": 2102,
      "promised": 2103,
      "warmly": 2104,
      "laughing": 2105,
      "education": 2106,
      "arrangement": 2107,
      "likeness": 2108,
      "totally": 2109,
      "exercise": 2110,
      "Ho": 2111,
      "_she": 2112,
      "cat": 2113,
      "sence": 2114,
      "tal": 2115,
      "reached": 2116,
      "returning": 2117,
      "ison": 2118,
      "mama": 2119,
      "ney": 2120,
      "arrived": 2121,
      "rud": 2122,
      "sentiment": 2123,
      "passing": 2124,
      "uneas": 2125,
      "minute": 2126,
      "thoroughly": 2127,
      "equally": 2128,
      "dearest": 2129,
      "_she_": 2130,
      "talent": 2131,
      "bur": 2132,
      "ease": 2133,
      "siz": 2134,
      "var": 2135,
      "infinite": 2136,
      "rich": 2137,
      "entertain": 2138,
      "compassion": 2139,
      "peculiar": 2140,
      "exceed": 2141,
      "fool": 2142,
      "Churchills": 2143,
      "book": 2144,
      "considerable": 2145,
      "refuse": 2146,
      "safely": 2147,
      "close": 2148,
      "suspicions": 2149,
      "single": 2150,
      "delicacy": 2151,
      "forgotten": 2152,
      "apolog": 2153,
      "sick": 2154,
      "formed": 2155,
      "move": 2156,
      "caution": 2157,
      "grad": 2158,
      "ishment": 2159,
      "smiled": 2160,
      "ceiving": 2161,
      "busy": 2162,
      "remained": 2163,
      "stopped": 2164,
      "occurred": 2165,
      "However": 2166,
      "fut": 2167,
      "frequ": 2168,
      "ring": 2169,
      "living": 2170,
      "ourselves": 2171,
      "prehen": 2172,
      "icar": 2173,
      "ures": 2174,
      "aston": 2175,
      "joined": 2176,
      "ches": 2177,
      "considering": 2178,
      "finding": 2179,
      "admire": 2180,
      "sym": 2181,
      "niece": 2182,
      "number": 2183,
      "future": 2184,
      "prehens": 2185,
      "hund": 2186,
      "ich": 2187,
      "past": 2188,
      "uded": 2189,
      "ency": 2190,
      "stri": 2191,
      "seated": 2192,
      "agitation": 2193,
      "arrival": 2194,
      "explan": 2195,
      "Bath": 2196,
      "aching": 2197,
      "attentive": 2198,
      "invited": 2199,
      "gratified": 2200,
      "venture": 2201,
      "dream": 2202,
      "suffering": 2203,
      "possibly": 2204,
      "calm": 2205,
      "Box": 2206,
      "hundred": 2207,
      "sound": 2208,
      "test": 2209,
      "uman": 2210,
      "ress": 2211,
      "chi": 2212,
      "utter": 2213,
      "aging": 2214,
      "rap": 2215,
      "objection": 2216,
      "caught": 2217,
      "spend": 2218,
      "idered": 2219,
      "posit": 2220,
      "considered": 2221,
      "writing": 2222,
      "address": 2223,
      "remain": 2224,
      "dreadful": 2225,
      "Thank": 2226,
      "amused": 2227,
      "Did": 2228,
      "Was": 2229,
      "during": 2230,
      "laid": 2231,
      "nice": 2232,
      "unex": 2233,
      "ymouth": 2234,
      "reli": 2235,
      "habit": 2236,
      "These": 2237,
      "tered": 2238,
      "dislike": 2239,
      "Weymouth": 2240,
      "visits": 2241,
      "ferent": 2242,
      "writ": 2243,
      "Coles": 2244,
      "scru": 2245,
      "interrup": 2246,
      "musical": 2247,
      "decidedly": 2248,
      "concerned": 2249,
      "apparent": 2250,
      "neighbours": 2251,
      "grave": 2252,
      "occupied": 2253,
      "ghed": 2254,
      "human": 2255,
      "ps": 2256,
      "pal": 2257,
      "ues": 2258,
      "xion": 2259,
      "ates": 2260,
      "conne": 2261,
      "excess": 2262,
      "Then": 2263,
      "whatever": 2264,
      "fig": 2265,
      "Nothing": 2266,
      "blunder": 2267,
      "complexion": 2268,
      "anxiety": 2269,
      "laughed": 2270,
      "elegance": 2271,
      "wedding": 2272,
      "accomplished": 2273,
      "paid": 2274,
      "sides": 2275,
      "vy": 2276,
      "resent": 2277,
      "vey": 2278,
      "absent": 2279,
      "ament": 2280,
      "acc": 2281,
      "supp": 2282,
      "contri": 2283,
      "opening": 2284,
      "piece": 2285,
      "difficulties": 2286,
      "corre": 2287,
      "Ford": 2288,
      "acknowledge": 2289,
      "produced": 2290,
      "desirable": 2291,
      "prepared": 2292,
      "chief": 2293,
      "By": 2294,
      "blo": 2295,
      "jour": 2296,
      "nephe": 2297,
      "propri": 2298,
      "proposed": 2299,
      "share": 2300,
      "ideas": 2301,
      "pride": 2302,
      "sincere": 2303,
      "value": 2304,
      "compliments": 2305,
      "material": 2306,
      "inquiry": 2307,
      "burst": 2308,
      "journey": 2309,
      "nephew": 2310,
      "eper": 2311,
      "fat": 2312,
      "ingu": 2313,
      "sess": 2314,
      "youth": 2315,
      "history": 2316,
      "ards": 2317,
      "affor": 2318,
      "possess": 2319,
      "court": 2320,
      "probability": 2321,
      "distingu": 2322,
      "resist": 2323,
      "dress": 2324,
      "boys": 2325,
      "lucky": 2326,
      "placed": 2327,
      "motive": 2328,
      "bride": 2329,
      "carry": 2330,
      "Suckling": 2331,
      ";\"": 2332,
      "Where": 2333,
      "_her": 2334,
      "dine": 2335,
      "fresh": 2336,
      "ked": 2337,
      "mess": 2338,
      "vanity": 2339,
      "becoming": 2340,
      "office": 2341,
      "liked": 2342,
      "consult": 2343,
      "anywhere": 2344,
      "exam": 2345,
      "teen": 2346,
      "seeming": 2347,
      "parting": 2348,
      "intended": 2349,
      "ception": 2350,
      "famili": 2351,
      "horse": 2352,
      "seriously": 2353,
      "neighbourhood": 2354,
      "paper": 2355,
      "indifference": 2356,
      "indifferent": 2357,
      "tolerably": 2358,
      "_her_": 2359,
      ")--": 2360,
      "pract": 2361,
      "wick": 2362,
      "anim": 2363,
      "remon": 2364,
      "itable": 2365,
      "besides": 2366,
      "sever": 2367,
      "shed": 2368,
      "entreat": 2369,
      "maid": 2370,
      "liber": 2371,
      "convey": 2372,
      "undoubt": 2373,
      "cape": 2374,
      "iously": 2375,
      "miser": 2376,
      "flatter": 2377,
      "Perhaps": 2378,
      "interested": 2379,
      "persuade": 2380,
      "favourable": 2381,
      "ridge": 2382,
      "fears": 2383,
      "employment": 2384,
      "breakfast": 2385,
      "borne": 2386,
      "private": 2387,
      "Rich": 2388,
      "dle": 2389,
      "mond": 2390,
      "sink": 2391,
      "hair": 2392,
      "united": 2393,
      "arer": 2394,
      "pretend": 2395,
      "ardon": 2396,
      "Cox": 2397,
      "opened": 2398,
      "shewed": 2399,
      "runs": 2400,
      "amusement": 2401,
      "Richmond": 2402,
      "I_": 2403,
      "Pray": 2404,
      "_I_": 2405,
      "cing": 2406,
      "ier": 2407,
      "sign": 2408,
      "repro": 2409,
      "isite": 2410,
      "utmost": 2411,
      "abo": 2412,
      "anted": 2413,
      "certainty": 2414,
      "merit": 2415,
      "expectation": 2416,
      "impat": 2417,
      "betray": 2418,
      "circle": 2419,
      "suffered": 2420,
      "smiles": 2421,
      "portion": 2422,
      "suspected": 2423,
      "grace": 2424,
      "strength": 2425,
      "Nash": 2426,
      "Who": 2427,
      "ben": 2428,
      "nonsense": 2429,
      "ost": 2430,
      "pardon": 2431,
      "smo": 2432,
      "recollection": 2433,
      "stre": 2434,
      "ources": 2435,
      "imagination": 2436,
      "parlour": 2437,
      "instantly": 2438,
      "angry": 2439,
      "confusion": 2440,
      "advice": 2441,
      "decis": 2442,
      "intimate": 2443,
      "ification": 2444,
      "icarage": 2445,
      "figure": 2446,
      "Ch": 2447,
      "Irel": 2448,
      "Qu": 2449,
      "itor": 2450,
      "lit": 2451,
      "sk": 2452,
      "inj": 2453,
      "ann": 2454,
      "receiving": 2455,
      "ons": 2456,
      "strange": 2457,
      "--(": 2458,
      "escape": 2459,
      "meas": 2460,
      "unpleasant": 2461,
      "ifying": 2462,
      "apples": 2463,
      "shame": 2464,
      "gives": 2465,
      "visitor": 2466,
      "getting": 2467,
      "misery": 2468,
      "Martins": 2469,
      "affected": 2470,
      "admired": 2471,
      "valu": 2472,
      "drawn": 2473,
      "matters": 2474,
      "easily": 2475,
      "servants": 2476,
      "Ireland": 2477,
      "_him": 2478,
      "eight": 2479,
      "vous": 2480,
      "inconven": 2481,
      "feature": 2482,
      "post": 2483,
      "gress": 2484,
      "somebody": 2485,
      "nervous": 2486,
      "tenance": 2487,
      "countenance": 2488,
      "expecting": 2489,
      "naturally": 2490,
      "powers": 2491,
      "following": 2492,
      "lively": 2493,
      "gallantry": 2494,
      "secured": 2495,
      "comparison": 2496,
      "avoid": 2497,
      "rapid": 2498,
      "smoo": 2499,
      "_him_": 2500,
      "VII": 2501,
      "line": 2502,
      "mber": 2503,
      "rom": 2504,
      "simp": 2505,
      "war": 2506,
      "absence": 2507,
      "supper": 2508,
      "passage": 2509,
      "moments": 2510,
      "story": 2511,
      "grandmama": 2512,
      "Only": 2513,
      "prospects": 2514,
      "moder": 2515,
      "negle": 2516,
      "size": 2517,
      "infinitely": 2518,
      "foolish": 2519,
      "explanation": 2520,
      "message": 2521,
      "above": 2522,
      "_that": 2523,
      "cul": 2524,
      "rand": 2525,
      "tall": 2526,
      "thro": 2527,
      "thus": 2528,
      "improve": 2529,
      "peace": 2530,
      "quare": 2531,
      "keeper": 2532,
      "preference": 2533,
      "housekeeper": 2534,
      "partner": 2535,
      "rub": 2536,
      "ruel": 2537,
      "loves": 2538,
      "rooms": 2539,
      "mistress": 2540,
      "sensations": 2541,
      "nearly": 2542,
      "require": 2543,
      "chosen": 2544,
      "distinct": 2545,
      "blessing": 2546,
      "presume": 2547,
      "positively": 2548,
      "_that_": 2549,
      "throat": 2550,
      "Aye": 2551,
      "ake": 2552,
      "pit": 2553,
      "become": 2554,
      "llable": 2555,
      "libert": 2556,
      "propos": 2557,
      "apt": 2558,
      "distur": 2559,
      "parted": 2560,
      "proud": 2561,
      "guest": 2562,
      "particulars": 2563,
      "throw": 2564,
      "judged": 2565,
      "admitted": 2566,
      "folly": 2567,
      "questions": 2568,
      "doors": 2569,
      "paying": 2570,
      "syllable": 2571,
      "proceeded": 2572,
      "increased": 2573,
      "soft": 2574,
      "street": 2575,
      "proposal": 2576,
      "_you": 2577,
      "ening": 2578,
      "straw": 2579,
      "feared": 2580,
      ",\"--": 2581,
      "plor": 2582,
      "subm": 2583,
      "truly": 2584,
      "reply": 2585,
      "report": 2586,
      "check": 2587,
      "immediate": 2588,
      "properly": 2589,
      "expressed": 2590,
      "keeping": 2591,
      "assistance": 2592,
      "mortification": 2593,
      "intelligible": 2594,
      "earnestly": 2595,
      "evidently": 2596,
      "catch": 2597,
      "writes": 2598,
      "connected": 2599,
      "excessively": 2600,
      "Quite": 2601,
      "_you_": 2602,
      "strawber": 2603,
      ".,": 2604,
      "Come": 2605,
      "Wing": 2606,
      "ama": 2607,
      "ping": 2608,
      "pair": 2609,
      "san": 2610,
      "itated": 2611,
      "stair": 2612,
      "seld": 2613,
      "memor": 2614,
      "selfish": 2615,
      "disengaged": 2616,
      "coo": 2617,
      "complaint": 2618,
      "merits": 2619,
      "dining": 2620,
      "hearted": 2621,
      "continue": 2622,
      "tempted": 2623,
      "closed": 2624,
      "fancying": 2625,
      "path": 2626,
      "declare": 2627,
      ".'\"": 2628,
      "pub": 2629,
      "concealment": 2630,
      "remarkably": 2631,
      "exclaimed": 2632,
      "solicitude": 2633,
      "recovered": 2634,
      "volunt": 2635,
      "frightened": 2636,
      "families": 2637,
      "undoubtedly": 2638,
      "Wingfield": 2639,
      "amaz": 2640,
      "seldom": 2641,
      "aily": 2642,
      "fash": 2643,
      "pet": 2644,
      "anci": 2645,
      "hall": 2646,
      "arran": 2647,
      "around": 2648,
      "thir": 2649,
      "vex": 2650,
      "aining": 2651,
      "establ": 2652,
      "exist": 2653,
      "wholly": 2654,
      "partial": 2655,
      "gover": 2656,
      "firm": 2657,
      "overcome": 2658,
      "blame": 2659,
      "perfection": 2660,
      "Small": 2661,
      "chair": 2662,
      "refused": 2663,
      "addition": 2664,
      "trave": 2665,
      "cord": 2666,
      "required": 2667,
      "chool": 2668,
      "acknowledged": 2669,
      "induce": 2670,
      "langu": 2671,
      "announ": 2672,
      "fashion": 2673,
      "End": 2674,
      "Sur": 2675,
      "South": 2676,
      "aving": 2677,
      "cand": 2678,
      "chat": 2679,
      "dra": 2680,
      "dark": 2681,
      "lament": 2682,
      "twel": 2683,
      "winter": 2684,
      "hest": 2685,
      "hab": 2686,
      "ston": 2687,
      "sugg": 2688,
      "illy": 2689,
      "whis": 2690,
      "sacri": 2691,
      "disgust": 2692,
      "plans": 2693,
      "pray": 2694,
      "persons": 2695,
      "advise": 2696,
      "prompt": 2697,
      "warmth": 2698,
      "intercourse": 2699,
      "girls": 2700,
      "safety": 2701,
      "played": 2702,
      "staying": 2703,
      "collected": 2704,
      "communication": 2705,
      "produce": 2706,
      "steady": 2707,
      "interrupted": 2708,
      "miserable": 2709,
      "liberty": 2710,
      "public": 2711,
      "twelve": 2712,
      "suggest": 2713,
      "Bruns": 2714,
      "Patt": 2715,
      "Square": 2716,
      "dom": 2717,
      "ges": 2718,
      "iest": 2719,
      "lish": 2720,
      "leng": 2721,
      "ned": 2722,
      "slow": 2723,
      "tained": 2724,
      "top": 2725,
      "cease": 2726,
      "sole": 2727,
      "protest": 2728,
      "foot": 2729,
      "grew": 2730,
      "harm": 2731,
      "earli": 2732,
      "umph": 2733,
      "ignor": 2734,
      "lessness": 2735,
      "commod": 2736,
      "compared": 2737,
      "instance": 2738,
      "settle": 2739,
      "fairly": 2740,
      "continual": 2741,
      "reserved": 2742,
      "places": 2743,
      "preva": 2744,
      "observation": 2745,
      "separate": 2746,
      "preferred": 2747,
      "sunk": 2748,
      "Brunswick": 2749,
      "Patty": 2750,
      "Sel": 2751,
      "don": 2752,
      "hither": 2753,
      "mbl": 2754,
      "pork": 2755,
      "school": 2756,
      "ina": 2757,
      "ining": 2758,
      "rejo": 2759,
      "resto": 2760,
      "error": 2761,
      "assur": 2762,
      "sea": 2763,
      "seat": 2764,
      "devo": 2765,
      "irth": 2766,
      "amed": 2767,
      "perceived": 2768,
      "perceive": 2769,
      "rence": 2770,
      "boast": 2771,
      "treat": 2772,
      "brance": 2773,
      "judging": 2774,
      "direction": 2775,
      "playing": 2776,
      "finished": 2777,
      "importance": 2778,
      "succeeded": 2779,
      "assured": 2780,
      "sufficiently": 2781,
      "touch": 2782,
      "talents": 2783,
      "exceedingly": 2784,
      "propriety": 2785,
      "fatig": 2786,
      "liberal": 2787,
      "simplicity": 2788,
      "Selina": 2789,
      "Vicarage": 2790,
      "_not": 2791,
      "aven": 2792,
      "cared": 2793,
      "daily": 2794,
      "ger": 2795,
      "mut": 2796,
      "rist": 2797,
      "receive": 2798,
      "itself": 2799,
      "ordered": 2800,
      "vering": 2801,
      "maint": 2802,
      "consol": 2803,
      "pered": 2804,
      "acles": 2805,
      "iced": 2806,
      "indis": 2807,
      "bye": 2808,
      "raised": 2809,
      "apprehens": 2810,
      "speed": 2811,
      "kindly": 2812,
      "parade": 2813,
      "appears": 2814,
      "wholesome": 2815,
      "direct": 2816,
      "wonderful": 2817,
      "excepting": 2818,
      "deserved": 2819,
      "watched": 2820,
      "quarrel": 2821,
      "evils": 2822,
      "trans": 2823,
      "Christ": 2824,
      "Smallridge": 2825,
      "habits": 2826,
      "earlier": 2827,
      "_not_": 2828,
      "Dep": 2829,
      "King": 2830,
      "een": 2831,
      "gar": 2832,
      "lim": 2833,
      "za": 2834,
      "orig": 2835,
      "----": 2836,
      "melan": 2837,
      "excl": 2838,
      "tear": 2839,
      "preser": 2840,
      "sooner": 2841,
      "turns": 2842,
      "guine": 2843,
      "confined": 2844,
      "superiority": 2845,
      "thanks": 2846,
      "choly": 2847,
      "resources": 2848,
      "patience": 2849,
      "honourable": 2850,
      "increase": 2851,
      "tolerable": 2852,
      "madam": 2853,
      "independence": 2854,
      "distinguishing": 2855,
      "smooth": 2856,
      "arranged": 2857,
      "Depend": 2858,
      "origin": 2859,
      "melancholy": 2860,
      "!'": 2861,
      "Lark": 2862,
      "Mu": 2863,
      "Never": 2864,
      "mone": 2865,
      "rim": 2866,
      "sle": 2867,
      "tion": 2868,
      "tong": 2869,
      "resu": 2870,
      "represent": 2871,
      "ences": 2872,
      "isure": 2873,
      "leisure": 2874,
      "seiz": 2875,
      "esses": 2876,
      "escap": 2877,
      "death": 2878,
      "irr": 2879,
      "unwilling": 2880,
      "perple": 2881,
      "explain": 2882,
      "pret": 2883,
      "ices": 2884,
      "hot": 2885,
      "ilities": 2886,
      "affair": 2887,
      "spring": 2888,
      "spectacles": 2889,
      "design": 2890,
      "subjects": 2891,
      "admit": 2892,
      "necessity": 2893,
      "bringing": 2894,
      "inclined": 2895,
      "communicated": 2896,
      "civility": 2897,
      "hesitation": 2898,
      "intentions": 2899,
      "principal": 2900,
      "English": 2901,
      "trusted": 2902,
      "garden": 2903,
      "resentment": 2904,
      "Larkins": 2905,
      "money": 2906,
      "perplex": 2907,
      "Could": 2908,
      "lab": 2909,
      "pto": 2910,
      "wo": 2911,
      "held": 2912,
      "ony": 2913,
      "stle": 2914,
      "start": 2915,
      "del": 2916,
      "forced": 2917,
      "entering": 2918,
      "ident": 2919,
      "pop": 2920,
      "unless": 2921,
      "shrub": 2922,
      "indign": 2923,
      "progress": 2924,
      "feels": 2925,
      "cool": 2926,
      "forty": 2927,
      "begun": 2928,
      "author": 2929,
      "counter": 2930,
      "visiting": 2931,
      "putting": 2932,
      "invite": 2933,
      "acting": 2934,
      "shewn": 2935,
      "sensib": 2936,
      "humoured": 2937,
      "depended": 2938,
      "connexions": 2939,
      "intelligence": 2940,
      "tranqu": 2941,
      "intention": 2942,
      "steps": 2943,
      "England": 2944,
      "bustle": 2945,
      "governess": 2946,
      "Kingston": 2947,
      "From": 2948,
      "bak": 2949,
      "bright": 2950,
      "dances": 2951,
      "dign": 2952,
      "eal": 2953,
      "lat": 2954,
      "silly": 2955,
      "fet": 2956,
      "quisite": 2957,
      "key": 2958,
      "shut": 2959,
      "accommod": 2960,
      "disc": 2961,
      "pla": 2962,
      "takes": 2963,
      "grown": 2964,
      "ount": 2965,
      "desired": 2966,
      "tells": 2967,
      "comfortably": 2968,
      "natured": 2969,
      "pains": 2970,
      "watch": 2971,
      "encouraging": 2972,
      "drew": 2973,
      "sisters": 2974,
      "eagerly": 2975,
      "acceptable": 2976,
      "grandmother": 2977,
      "pause": 2978,
      "introduced": 2979,
      "troublesome": 2980,
      "reproach": 2981,
      "neglect": 2982,
      "strawberries": 2983,
      "memory": 2984,
      "voluntarily": 2985,
      "length": 2986,
      "'--": 2987,
      "Al": 2988,
      "Are": 2989,
      "Eli": 2990,
      "Sat": 2991,
      "York": 2992,
      "avy": 2993,
      "rass": 2994,
      "heavy": 2995,
      "haz": 2996,
      "beth": 2997,
      "nod": 2998,
      "leaving": 2999,
      "weak": 3000,
      "illness": 3001,
      "conject": 3002,
      "rose": 3003,
      "polit": 3004,
      "onest": 3005,
      "pert": 3006,
      "explor": 3007,
      "ify": 3008,
      "shire": 3009,
      "rule": 3010,
      "coach": 3011,
      "offence": 3012,
      "older": 3013,
      "charm": 3014,
      "distant": 3015,
      "embar": 3016,
      "determin": 3017,
      "choice": 3018,
      "declined": 3019,
      "accepted": 3020,
      "advantages": 3021,
      "risk": 3022,
      "hurrying": 3023,
      "faults": 3024,
      "motion": 3025,
      "grounds": 3026,
      "discover": 3027,
      "previous": 3028,
      "highest": 3029,
      "supply": 3030,
      "language": 3031,
      "Surry": 3032,
      "hitherto": 3033,
      "assurance": 3034,
      "zabeth": 3035,
      "Elizabeth": 3036,
      "exploring": 3037,
      "embarrass": 3038,
      "All": 3039,
      "Te": 3040,
      "Thou": 3041,
      "Whe": 3042,
      "dro": 3043,
      "dull": 3044,
      "gruel": 3045,
      "lace": 3046,
      "rink": 3047,
      "ud": 3048,
      "inqui": 3049,
      "thin": 3050,
      "verse": 3051,
      "agitated": 3052,
      "moving": 3053,
      "fron": 3054,
      "antic": 3055,
      "ulous": 3056,
      "ments": 3057,
      "discre": 3058,
      "disagree": 3059,
      "houses": 3060,
      "happen": 3061,
      "fling": 3062,
      "affect": 3063,
      "broad": 3064,
      "opinions": 3065,
      "persuasion": 3066,
      "pense": 3067,
      "declar": 3068,
      "approach": 3069,
      "behaved": 3070,
      "constit": 3071,
      "distinction": 3072,
      "leading": 3073,
      "congratulations": 3074,
      "deeply": 3075,
      "fellow": 3076,
      "independent": 3077,
      "sympto": 3078,
      "coolly": 3079,
      "consolation": 3080,
      "tongue": 3081,
      "pretence": 3082,
      "Though": 3083,
      "inquiries": 3084,
      "symptoms": 3085,
      "fanci": 3086,
      "loud": 3087,
      "prud": 3088,
      "vul": 3089,
      "errand": 3090,
      "ital": 3091,
      "asions": 3092,
      "beloved": 3093,
      "argu": 3094,
      "abroad": 3095,
      "composed": 3096,
      "ext": 3097,
      "shake": 3098,
      "begged": 3099,
      "flutter": 3100,
      "promo": 3101,
      "fortunately": 3102,
      "missed": 3103,
      "quickness": 3104,
      "capable": 3105,
      "induced": 3106,
      "prevented": 3107,
      "windows": 3108,
      "provok": 3109,
      "higher": 3110,
      "uneasy": 3111,
      "apologies": 3112,
      "frequent": 3113,
      "scruples": 3114,
      "several": 3115,
      "conveyed": 3116,
      "inconvenience": 3117,
      "Much": 3118,
      "vulgar": 3119,
      "Br": 3120,
      "Me": 3121,
      "drive": 3122,
      "drink": 3123,
      "honest": 3124,
      "ially": 3125,
      "stoo": 3126,
      "income": 3127,
      "result": 3128,
      "itations": 3129,
      "ene": 3130,
      "ingen": 3131,
      "staid": 3132,
      "ceremon": 3133,
      "shop": 3134,
      "ously": 3135,
      "shaken": 3136,
      "attended": 3137,
      "lovely": 3138,
      "native": 3139,
      "parish": 3140,
      "refresh": 3141,
      "setting": 3142,
      "convince": 3143,
      "engagements": 3144,
      "shook": 3145,
      "mortified": 3146,
      "grieved": 3147,
      "glance": 3148,
      "uneasiness": 3149,
      "impatient": 3150,
      "valuable": 3151,
      "sanguine": 3152,
      "stairs": 3153,
      "existence": 3154,
      "whisper": 3155,
      "escaped": 3156,
      "Brag": 3157,
      "Au": 3158,
      "Com": 3159,
      "Certain": 3160,
      "Our": 3161,
      "atory": 3162,
      "bas": 3163,
      "eating": 3164,
      "ian": 3165,
      "liness": 3166,
      "mb": 3167,
      "mn": 3168,
      "soften": 3169,
      "invol": 3170,
      "renew": 3171,
      "onoun": 3172,
      "hast": 3173,
      "ensure": 3174,
      "arise": 3175,
      "alli": 3176,
      "male": 3177,
      "abrup": 3178,
      "faith": 3179,
      "fail": 3180,
      "precise": 3181,
      "rapt": 3182,
      "proportion": 3183,
      "hurt": 3184,
      "pronoun": 3185,
      "support": 3186,
      "stopt": 3187,
      "repet": 3188,
      "sorrow": 3189,
      "resolve": 3190,
      "coldness": 3191,
      "corner": 3192,
      "danced": 3193,
      "plore": 3194,
      "watching": 3195,
      "sweetness": 3196,
      "employed": 3197,
      "introduce": 3198,
      "Something": 3199,
      "delicate": 3200,
      "blindness": 3201,
      "indulge": 3202,
      "middle": 3203,
      "relief": 3204,
      "possession": 3205,
      "guests": 3206,
      "declaration": 3207,
      "abrupt": 3208,
      "Ano": 3209,
      "cr": 3210,
      "dri": 3211,
      "dared": 3212,
      "eli": 3213,
      "ga": 3214,
      "iv": 3215,
      "ilt": 3216,
      "wild": 3217,
      "reconc": 3218,
      "asing": 3219,
      "armed": 3220,
      "alarmed": 3221,
      "mest": 3222,
      "owed": 3223,
      "felicity": 3224,
      "urday": 3225,
      "unreasonable": 3226,
      "perfor": 3227,
      "exult": 3228,
      "exquisite": 3229,
      "accor": 3230,
      "Heaven": 3231,
      "Westons": 3232,
      "rances": 3233,
      "shade": 3234,
      "spond": 3235,
      "attending": 3236,
      "Were": 3237,
      "bore": 3238,
      "board": 3239,
      "vision": 3240,
      "pleasures": 3241,
      "openly": 3242,
      "condition": 3243,
      "remembrance": 3244,
      "differently": 3245,
      "clock": 3246,
      "trade": 3247,
      "penet": 3248,
      "applic": 3249,
      "sumption": 3250,
      "introduction": 3251,
      "removal": 3252,
      "description": 3253,
      "fallen": 3254,
      "rivet": 3255,
      "gracious": 3256,
      "civilities": 3257,
      "gardens": 3258,
      "astonished": 3259,
      "correspond": 3260,
      "warmest": 3261,
      "cordial": 3262,
      "draught": 3263,
      "sacrifice": 3264,
      "treatment": 3265,
      "Saturday": 3266,
      "Yorkshire": 3267,
      "anticip": 3268,
      "Another": 3269,
      "reconciled": 3270,
      "according": 3271,
      "Bet": 3272,
      "Till": 3273,
      "XVII": 3274,
      "action": 3275,
      "birth": 3276,
      "du": 3277,
      "diss": 3278,
      "gain": 3279,
      "ike": 3280,
      "lower": 3281,
      "mild": 3282,
      "nur": 3283,
      "pun": 3284,
      "enced": 3285,
      "offered": 3286,
      "cel": 3287,
      "alter": 3288,
      "nearer": 3289,
      "urge": 3290,
      "artic": 3291,
      "raction": 3292,
      "pros": 3293,
      "attraction": 3294,
      "restr": 3295,
      "content": 3296,
      "farmer": 3297,
      "tempered": 3298,
      "points": 3299,
      "acquies": 3300,
      "wherever": 3301,
      "parcel": 3302,
      "personal": 3303,
      "careful": 3304,
      "triumph": 3305,
      "horror": 3306,
      "humble": 3307,
      "water": 3308,
      "sufferable": 3309,
      "eagerness": 3310,
      "dreadfully": 3311,
      "distressing": 3312,
      "div": 3313,
      "athing": 3314,
      "discovery": 3315,
      "solicit": 3316,
      "witness": 3317,
      "ableness": 3318,
      "peculiarly": 3319,
      "gradually": 3320,
      "frequently": 3321,
      "decision": 3322,
      "Christmas": 3323,
      "baked": 3324,
      "Certainly": 3325,
      "Even": 3326,
      "God": 3327,
      "May": 3328,
      "__": 3329,
      "emed": 3330,
      "sl": 3331,
      "song": 3332,
      "tire": 3333,
      "uding": 3334,
      "asking": 3335,
      "lling": 3336,
      "arrow": 3337,
      "chose": 3338,
      "forgive": 3339,
      "forming": 3340,
      "ried": 3341,
      "entre": 3342,
      "irt": 3343,
      "lives": 3344,
      "abilities": 3345,
      "ado": 3346,
      "terms": 3347,
      "unfortunate": 3348,
      "exped": 3349,
      "nder": 3350,
      "manage": 3351,
      "greatly": 3352,
      "cake": 3353,
      "spare": 3354,
      "readily": 3355,
      "trembl": 3356,
      "speaks": 3357,
      "doubted": 3358,
      "comforts": 3359,
      "repent": 3360,
      "blu": 3361,
      "quality": 3362,
      "observing": 3363,
      "hence": 3364,
      "stronger": 3365,
      "trifling": 3366,
      "denying": 3367,
      "dependence": 3368,
      "suspicious": 3369,
      "occasionally": 3370,
      "recommended": 3371,
      "lux": 3372,
      "companions": 3373,
      "increasing": 3374,
      "mortifying": 3375,
      "constantly": 3376,
      "joining": 3377,
      "inquire": 3378,
      "convenient": 3379,
      "contrived": 3380,
      "sincerely": 3381,
      "injure": 3382,
      "features": 3383,
      "solemn": 3384,
      "August": 3385,
      "),": 3386,
      "Jan": 3387,
      "bly": 3388,
      "carri": 3389,
      "card": 3390,
      "fle": 3391,
      "gay": 3392,
      "iency": 3393,
      "sses": 3394,
      "uary": 3395,
      "zen": 3396,
      "ham": 3397,
      "stir": 3398,
      "ride": 3399,
      "alert": 3400,
      "mag": 3401,
      "advis": 3402,
      "moved": 3403,
      "quitted": 3404,
      "powered": 3405,
      "este": 3406,
      "ission": 3407,
      "planted": 3408,
      "goes": 3409,
      "class": 3410,
      "attack": 3411,
      "eldest": 3412,
      "subst": 3413,
      "doubtful": 3414,
      "brain": 3415,
      "instant": 3416,
      "affections": 3417,
      "scene": 3418,
      "cheerfully": 3419,
      "penance": 3420,
      "conceit": 3421,
      "satisfac": 3422,
      "rising": 3423,
      "recommendations": 3424,
      "destin": 3425,
      "suitable": 3426,
      "falling": 3427,
      "professions": 3428,
      "shocking": 3429,
      "conclusion": 3430,
      "midst": 3431,
      "afforded": 3432,
      "moderate": 3433,
      "ignorant": 3434,
      "fancied": 3435,
      "Bragge": 3436,
      "performan": 3437,
      "January": 3438,
      "Cons": 3439,
      "Still": 3440,
      "_very": 3441,
      "_me": 3442,
      "bid": 3443,
      "fid": 3444,
      "fur": 3445,
      "named": 3446,
      "wal": 3447,
      "heat": 3448,
      "rec": 3449,
      "reaching": 3450,
      "ises": 3451,
      "associ": 3452,
      "lear": 3453,
      "suited": 3454,
      "enter": 3455,
      "meal": 3456,
      "irresist": 3457,
      "posure": 3458,
      "ample": 3459,
      "unjust": 3460,
      "expense": 3461,
      "ends": 3462,
      "raising": 3463,
      "discu": 3464,
      "opposing": 3465,
      "wants": 3466,
      "talker": 3467,
      "guided": 3468,
      "mischief": 3469,
      "occasions": 3470,
      "matrim": 3471,
      "complain": 3472,
      "qualities": 3473,
      "respects": 3474,
      "temptation": 3475,
      "necessarily": 3476,
      "expressions": 3477,
      "finest": 3478,
      "depends": 3479,
      "dangerous": 3480,
      "accepting": 3481,
      "quietly": 3482,
      "forgetting": 3483,
      "intellect": 3484,
      "recommendation": 3485,
      "describe": 3486,
      "described": 3487,
      "preparation": 3488,
      "sixteen": 3489,
      "mixed": 3490,
      "scruple": 3491,
      "dressed": 3492,
      "motives": 3493,
      "submitted": 3494,
      "labour": 3495,
      "authority": 3496,
      "sensibility": 3497,
      "accommodation": 3498,
      "discern": 3499,
      "determination": 3500,
      "Whenever": 3501,
      "alliance": 3502,
      "Consider": 3503,
      "_very_": 3504,
      "_me_": 3505,
      "discuss": 3506,
      "Bris": 3507,
      "Has": 3508,
      "Ju": 3509,
      "Sh": 3510,
      "_She": 3511,
      "crow": 3512,
      "egg": 3513,
      "gible": 3514,
      "glow": 3515,
      "parent": 3516,
      "sin": 3517,
      "sour": 3518,
      "spre": 3519,
      "zz": 3520,
      "inent": 3521,
      "tol": 3522,
      "itic": 3523,
      "attered": 3524,
      "arch": 3525,
      "stup": 3526,
      "chur": 3527,
      "demu": 3528,
      "aloud": 3529,
      "sore": 3530,
      "ows": 3531,
      "female": 3532,
      "neat": 3533,
      "confir": 3534,
      "ics": 3535,
      "displeased": 3536,
      "Knightleys": 3537,
      "happier": 3538,
      "cott": 3539,
      "colour": 3540,
      "umn": 3541,
      "tting": 3542,
      "voc": 3543,
      "chase": 3544,
      "affectionate": 3545,
      "strongest": 3546,
      "daughters": 3547,
      "trick": 3548,
      "sensation": 3549,
      "powerful": 3550,
      "larger": 3551,
      "purchase": 3552,
      "enjoyed": 3553,
      "included": 3554,
      "approved": 3555,
      "cheerfulness": 3556,
      "guessed": 3557,
      "hoping": 3558,
      "attempted": 3559,
      "hints": 3560,
      "hesitating": 3561,
      "steadily": 3562,
      "removed": 3563,
      "professed": 3564,
      "endured": 3565,
      "crossed": 3566,
      "sentiments": 3567,
      "addressing": 3568,
      "unexpect": 3569,
      "recollections": 3570,
      "rejoice": 3571,
      "tears": 3572,
      "resumed": 3573,
      "popular": 3574,
      "plaister": 3575,
      "coachman": 3576,
      "constitution": 3577,
      "precisely": 3578,
      "critic": 3579,
      "eligible": 3580,
      "destiny": 3581,
      "Bristol": 3582,
      "_She_": 3583,
      "spread": 3584,
      "church": 3585,
      "De": 3586,
      "Ot": 3587,
      "Tim": 3588,
      "Tho": 3589,
      "Tues": 3590,
      "Two": 3591,
      "cil": 3592,
      "cris": 3593,
      "curing": 3594,
      "censure": 3595,
      "fy": 3596,
      "flo": 3597,
      "gence": 3598,
      "nine": 3599,
      "oper": 3600,
      "rs": 3601,
      "tet": 3602,
      "height": 3603,
      "bered": 3604,
      "threat": 3605,
      "season": 3606,
      "degrad": 3607,
      "forbear": 3608,
      "rious": 3609,
      "alike": 3610,
      "white": 3611,
      "quit": 3612,
      "terror": 3613,
      "unnecessary": 3614,
      "unfortunately": 3615,
      "Their": 3616,
      "jum": 3617,
      "cience": 3618,
      "elder": 3619,
      "conscience": 3620,
      "creating": 3621,
      "engaging": 3622,
      "pointed": 3623,
      "surround": 3624,
      "imagin": 3625,
      "meanwhile": 3626,
      "delightfully": 3627,
      "pression": 3628,
      "imprud": 3629,
      "satisfy": 3630,
      "heartily": 3631,
      "inval": 3632,
      "invitations": 3633,
      "meetings": 3634,
      "changed": 3635,
      "waited": 3636,
      "expressing": 3637,
      "expression": 3638,
      "creatures": 3639,
      "concerns": 3640,
      "objects": 3641,
      "encouraged": 3642,
      "approaching": 3643,
      "acknowledgment": 3644,
      "beds": 3645,
      "slighted": 3646,
      "alarming": 3647,
      "evident": 3648,
      "unexception": 3649,
      "blunders": 3650,
      "carrying": 3651,
      "eighteen": 3652,
      "improvement": 3653,
      "disturb": 3654,
      "shrubber": 3655,
      "extent": 3656,
      "boarder": 3657,
      "prosper": 3658,
      "carriages": 3659,
      "performance": 3660,
      "Time": 3661,
      "Those": 3662,
      "Tuesday": 3663,
      "tete": 3664,
      "forbearance": 3665,
      "Im": 3666,
      "Mill": 3667,
      "Most": 3668,
      "bon": 3669,
      "cence": 3670,
      "fill": 3671,
      "free": 3672,
      "lings": 3673,
      "leness": 3674,
      "sly": 3675,
      "sending": 3676,
      "vou": 3677,
      "yards": 3678,
      "refr": 3679,
      "ense": 3680,
      "lled": 3681,
      "noon": 3682,
      "noble": 3683,
      "seven": 3684,
      "--`": 3685,
      "def": 3686,
      "liking": 3687,
      "conci": 3688,
      "roy": 3689,
      "save": 3690,
      "quitting": 3691,
      "estim": 3692,
      "estic": 3693,
      "estate": 3694,
      "ours": 3695,
      "precious": 3696,
      "proving": 3697,
      "dissu": 3698,
      "working": 3699,
      "happiest": 3700,
      "longed": 3701,
      "afternoon": 3702,
      "courage": 3703,
      "kinder": 3704,
      "downright": 3705,
      "unequal": 3706,
      "autumn": 3707,
      "interval": 3708,
      "suspense": 3709,
      "thankful": 3710,
      "declared": 3711,
      "excellence": 3712,
      "persuadable": 3713,
      "excuses": 3714,
      "regrets": 3715,
      "destroy": 3716,
      "effects": 3717,
      "tenderness": 3718,
      "profession": 3719,
      "Sucklings": 3720,
      "Exactly": 3721,
      "numbers": 3722,
      "calmness": 3723,
      "accident": 3724,
      "betrayed": 3725,
      "thirty": 3726,
      "domestic": 3727,
      "prevailed": 3728,
      "sleep": 3729,
      "indignation": 3730,
      "prudence": 3731,
      "provoking": 3732,
      "involved": 3733,
      "Better": 3734,
      "acquiescence": 3735,
      "tiresome": 3736,
      "blushed": 3737,
      "confirmed": 3738,
      "Part": 3739,
      "bare": 3740,
      "cer": 3741,
      "carried": 3742,
      "fro": 3743,
      "gy": 3744,
      "mand": 3745,
      "mes": 3746,
      "ture": 3747,
      "inable": 3748,
      "insol": 3749,
      "insufferable": 3750,
      "reck": 3751,
      "envy": 3752,
      "encounter": 3753,
      "ism": 3754,
      "ominable": 3755,
      "deficient": 3756,
      "detained": 3757,
      "ceased": 3758,
      "fever": 3759,
      "abominable": 3760,
      "comed": 3761,
      "safer": 3762,
      "lover": 3763,
      ".--`": 3764,
      "project": 3765,
      "apart": 3766,
      "fold": 3767,
      "using": 3768,
      "rum": 3769,
      "rude": 3770,
      "thoughtful": 3771,
      "coar": 3772,
      "rendered": 3773,
      "oppos": 3774,
      "boiled": 3775,
      "submiss": 3776,
      "minded": 3777,
      "engage": 3778,
      "gentility": 3779,
      "appearing": 3780,
      "charitable": 3781,
      "remembered": 3782,
      "pleasantly": 3783,
      "exciting": 3784,
      "healthy": 3785,
      "welcomed": 3786,
      "apply": 3787,
      "attempts": 3788,
      "constant": 3789,
      "bitter": 3790,
      "schemes": 3791,
      "remove": 3792,
      "puzz": 3793,
      "blessed": 3794,
      "belonged": 3795,
      "succeeding": 3796,
      "awkwardness": 3797,
      "mixture": 3798,
      "animated": 3799,
      "sinking": 3800,
      "pretending": 3801,
      "seized": 3802,
      "dignity": 3803,
      "politeness": 3804,
      "Tell": 3805,
      "argument": 3806,
      "mbled": 3807,
      "solicitous": 3808,
      "substance": 3809,
      "source": 3810,
      "vouch": 3811,
      "reckon": 3812,
      "opposite": 3813,
      "Fe": 3814,
      "Gil": 3815,
      "Nay": 3816,
      "St": 3817,
      "Sep": 3818,
      "_one": 3819,
      "bred": 3820,
      "bru": 3821,
      "bread": 3822,
      "cher": 3823,
      "cards": 3824,
      "dry": 3825,
      "ele": 3826,
      "ield": 3827,
      "names": 3828,
      "pace": 3829,
      "rous": 3830,
      "rise": 3831,
      "sought": 3832,
      "ub": 3833,
      "yield": 3834,
      "recur": 3835,
      "oul": 3836,
      "ener": 3837,
      "aside": 3838,
      "lli": 3839,
      "noise": 3840,
      "letting": 3841,
      "stran": 3842,
      "hero": 3843,
      "wealth": 3844,
      "abund": 3845,
      "adi": 3846,
      "conceived": 3847,
      "root": 3848,
      "saved": 3849,
      "quic": 3850,
      "unworthy": 3851,
      "unreserve": 3852,
      "unwholesome": 3853,
      "unsuspicious": 3854,
      "arted": 3855,
      "perpet": 3856,
      "failed": 3857,
      "across": 3858,
      "presumption": 3859,
      "moreover": 3860,
      "apple": 3861,
      "upright": 3862,
      "rue": 3863,
      "nerves": 3864,
      "club": 3865,
      "anced": 3866,
      "treated": 3867,
      "thened": 3868,
      "despair": 3869,
      "joyou": 3870,
      "compet": 3871,
      "misfortune": 3872,
      "tember": 3873,
      "acquit": 3874,
      "directed": 3875,
      "wondering": 3876,
      "cares": 3877,
      "Does": 3878,
      "interference": 3879,
      "shewing": 3880,
      "relate": 3881,
      "needless": 3882,
      "gentlemanlike": 3883,
      "sweep": 3884,
      "quarre": 3885,
      "acknowledging": 3886,
      "plainly": 3887,
      "strugg": 3888,
      "calcul": 3889,
      "occupy": 3890,
      "brilli": 3891,
      "blessings": 3892,
      "amusing": 3893,
      "contrast": 3894,
      "graciously": 3895,
      "afford": 3896,
      "measure": 3897,
      "visitors": 3898,
      "disturbed": 3899,
      "slowly": 3900,
      "speedily": 3901,
      "hazard": 3902,
      "article": 3903,
      "contented": 3904,
      "luxu": 3905,
      "furn": 3906,
      "Otway": 3907,
      "Febru": 3908,
      "Gilbert": 3909,
      "September": 3910,
      "_one_": 3911,
      "February": 3912,
      "Lane": 3913,
      "aver": 3914,
      "bask": 3915,
      "na": 3916,
      "wine": 3917,
      "reach": 3918,
      "vember": 3919,
      "noticed": 3920,
      "dev": 3921,
      "deaf": 3922,
      "rib": 3923,
      "lies": 3924,
      "lips": 3925,
      "fere": 3926,
      "compose": 3927,
      "composure": 3928,
      "urrence": 3929,
      "unfair": 3930,
      "uncommon": 3931,
      "uncomfortable": 3932,
      "ifull": 3933,
      "ically": 3934,
      "propose": 3935,
      "apprehend": 3936,
      "display": 3937,
      "goodness": 3938,
      "spared": 3939,
      "spending": 3940,
      "tens": 3941,
      "earth": 3942,
      "supposing": 3943,
      "November": 3944,
      "overpowered": 3945,
      "subdu": 3946,
      "privi": 3947,
      "joke": 3948,
      "counsel": 3949,
      ";--\"": 3950,
      "rights": 3951,
      "generous": 3952,
      "visited": 3953,
      "complac": 3954,
      "senses": 3955,
      "angel": 3956,
      "decor": 3957,
      "situations": 3958,
      "warmer": 3959,
      "ernal": 3960,
      "concurrence": 3961,
      "relative": 3962,
      "olence": 3963,
      "thanked": 3964,
      "retire": 3965,
      "determine": 3966,
      "train": 3967,
      "ridic": 3968,
      "hesitated": 3969,
      "lawn": 3970,
      "indulgence": 3971,
      "grief": 3972,
      "recover": 3973,
      "contrary": 3974,
      "shocked": 3975,
      "exertion": 3976,
      "sympath": 3977,
      "ventured": 3978,
      "chiefly": 3979,
      "blood": 3980,
      "establishment": 3981,
      "travel": 3982,
      "restored": 3983,
      "affairs": 3984,
      "tranquill": 3985,
      "later": 3986,
      "dropt": 3987,
      "softened": 3988,
      "raptures": 3989,
      "anticipated": 3990,
      "entreated": 3991,
      "trembling": 3992,
      "satisfactory": 3993,
      "irresistible": 3994,
      "matrimony": 3995,
      "crowd": 3996,
      "unexpected": 3997,
      "brilliant": 3998,
      "basket": 3999,
      "sympathy": 4000,
      "?'": 4001,
      "Go": 4002,
      "Neither": 4003,
      "Shall": 4004,
      "Would": 4005,
      "XII": 4006,
      "bod": 4007,
      "bili": 4008,
      "bathing": 4009,
      "cous": 4010,
      "cult": 4011,
      "fal": 4012,
      "gown": 4013,
      "gather": 4014,
      "list": 4015,
      "mise": 4016,
      "nay": 4017,
      "pally": 4018,
      "uit": 4019,
      "vast": 4020,
      "request": 4021,
      "ouche": 4022,
      "tom": 4023,
      "besto": 4024,
      "stery": 4025,
      "thick": 4026,
      "defer": 4027,
      "wear": 4028,
      "comprehens": 4029,
      "ades": 4030,
      "conund": 4031,
      "ung": 4032,
      "ungrateful": 4033,
      "ungracious": 4034,
      "explore": 4035,
      "aches": 4036,
      "fruit": 4037,
      "seek": 4038,
      "hosp": 4039,
      "caut": 4040,
      "hurried": 4041,
      "momentary": 4042,
      "truer": 4043,
      "compare": 4044,
      "understandings": 4045,
      "surmise": 4046,
      "probable": 4047,
      "charity": 4048,
      "confused": 4049,
      "acted": 4050,
      "claimed": 4051,
      "ibly": 4052,
      "relations": 4053,
      "social": 4054,
      "pursu": 4055,
      "pursuit": 4056,
      "resid": 4057,
      "offers": 4058,
      "Somebody": 4059,
      "distinctly": 4060,
      "gratefully": 4061,
      "suddenly": 4062,
      "landau": 4063,
      "speeches": 4064,
      "principally": 4065,
      "congratulate": 4066,
      "contradi": 4067,
      "sofa": 4068,
      "conclude": 4069,
      "barouche": 4070,
      "catching": 4071,
      "gravely": 4072,
      "bloom": 4073,
      "impatience": 4074,
      "benef": 4075,
      "announce": 4076,
      "front": 4077,
      "drinking": 4078,
      "repetition": 4079,
      "penetration": 4080,
      "crisis": 4081,
      "invalid": 4082,
      "unexceptionable": 4083,
      "shrubbery": 4084,
      "bilious": 4085,
      "false": 4086,
      "Ge": 4087,
      "Hod": 4088,
      "Happ": 4089,
      "IV": 4090,
      "Many": 4091,
      "Nonsense": 4092,
      "Or": 4093,
      "Ple": 4094,
      "Six": 4095,
      "_your": 4096,
      "bab": 4097,
      "damp": 4098,
      "gained": 4099,
      "jeal": 4100,
      "kn": 4101,
      "praised": 4102,
      "rated": 4103,
      "rase": 4104,
      "sal": 4105,
      "swell": 4106,
      "scre": 4107,
      "tain": 4108,
      "virt": 4109,
      "wood": 4110,
      "inf": 4111,
      "reverse": 4112,
      "reconci": 4113,
      "asses": 4114,
      "lla": 4115,
      "orge": 4116,
      "station": 4117,
      "stem": 4118,
      "stud": 4119,
      "thod": 4120,
      "sex": 4121,
      "chances": 4122,
      "impossibility": 4123,
      "impression": 4124,
      "depressed": 4125,
      "force": 4126,
      "entit": 4127,
      "irty": 4128,
      "idity": 4129,
      "adjoining": 4130,
      "roast": 4131,
      "perm": 4132,
      "persever": 4133,
      "fame": 4134,
      "icing": 4135,
      "nights": 4136,
      "displeasure": 4137,
      "ives": 4138,
      "specul": 4139,
      "foresaw": 4140,
      "taught": 4141,
      "obtained": 4142,
      "shar": 4143,
      "cop": 4144,
      "walks": 4145,
      "gips": 4146,
      "guard": 4147,
      "lasting": 4148,
      "considerably": 4149,
      "asks": 4150,
      "flow": 4151,
      "pressing": 4152,
      "impse": 4153,
      "anging": 4154,
      "refine": 4155,
      "spoiled": 4156,
      "resolving": 4157,
      "inviting": 4158,
      "reasonably": 4159,
      "prize": 4160,
      "promising": 4161,
      "strongly": 4162,
      "excited": 4163,
      "denial": 4164,
      "mentioning": 4165,
      "pens": 4166,
      "approached": 4167,
      "system": 4168,
      "paused": 4169,
      "proceeding": 4170,
      "curious": 4171,
      "delays": 4172,
      "phrase": 4173,
      "reflections": 4174,
      "glimpse": 4175,
      "materially": 4176,
      "preparing": 4177,
      "relieved": 4178,
      "animation": 4179,
      "signific": 4180,
      "vexation": 4181,
      "fatigu": 4182,
      "mutual": 4183,
      "apprehension": 4184,
      "discreet": 4185,
      "ceremony": 4186,
      "application": 4187,
      "XVIII": 4188,
      "restraint": 4189,
      "popularity": 4190,
      "abundance": 4191,
      "competent": 4192,
      "luxurious": 4193,
      "privile": 4194,
      "retirement": 4195,
      "George": 4196,
      "Hodges": 4197,
      "Pleas": 4198,
      "_your_": 4199,
      "baby": 4200,
      "jealous": 4201,
      "gipsies": 4202,
      "Little": 4203,
      "Sw": 4204,
      "Under": 4205,
      "XV": 4206,
      "_will": 4207,
      "av": 4208,
      "balls": 4209,
      "fly": 4210,
      "hush": 4211,
      "ie": 4212,
      "wl": 4213,
      "wound": 4214,
      "remiss": 4215,
      "erland": 4216,
      "aster": 4217,
      "eding": 4218,
      "notions": 4219,
      "impert": 4220,
      "depart": 4221,
      "deta": 4222,
      "deceived": 4223,
      "idious": 4224,
      "eties": 4225,
      "tern": 4226,
      "uncertainty": 4227,
      "unpardon": 4228,
      "unaffected": 4229,
      "pers": 4230,
      "losing": 4231,
      "isserland": 4232,
      "acher": 4233,
      "accompany": 4234,
      "procure": 4235,
      "ruce": 4236,
      "shawl": 4237,
      "spruce": 4238,
      "granted": 4239,
      "cies": 4240,
      "serve": 4241,
      "inequality": 4242,
      "oppose": 4243,
      "restlessness": 4244,
      "double": 4245,
      "diff": 4246,
      "desper": 4247,
      "despat": 4248,
      "doubts": 4249,
      "cheek": 4250,
      "blue": 4251,
      "agreeably": 4252,
      "generosity": 4253,
      "mercy": 4254,
      "wondered": 4255,
      "careless": 4256,
      "decide": 4257,
      "active": 4258,
      "colds": 4259,
      "settling": 4260,
      "drawback": 4261,
      "deny": 4262,
      "retired": 4263,
      "resign": 4264,
      "pattern": 4265,
      "pencil": 4266,
      "singing": 4267,
      "sufferings": 4268,
      "assisted": 4269,
      "truths": 4270,
      "charmingly": 4271,
      "stopping": 4272,
      "constancy": 4273,
      "proofs": 4274,
      "indulged": 4275,
      "grieve": 4276,
      "discovered": 4277,
      "observations": 4278,
      "assurances": 4279,
      "Any": 4280,
      "fireside": 4281,
      "presumed": 4282,
      "entertaining": 4283,
      "astonishment": 4284,
      "correct": 4285,
      "benev": 4286,
      "decisive": 4287,
      "measles": 4288,
      "valued": 4289,
      "rapidly": 4290,
      "established": 4291,
      "travelling": 4292,
      "prompted": 4293,
      "prevail": 4294,
      "apprehensive": 4295,
      "preserved": 4296,
      "irritation": 4297,
      "perplexity": 4298,
      "conjectures": 4299,
      "embarrassment": 4300,
      "sorrowful": 4301,
      "adopt": 4302,
      "alertness": 4303,
      "fidget": 4304,
      "discussion": 4305,
      "Just": 4306,
      "Short": 4307,
      "operation": 4308,
      "imprudent": 4309,
      "refrain": 4310,
      "sleeping": 4311,
      "complacency": 4312,
      "permitted": 4313,
      "speculation": 4314,
      "Swisserland": 4315,
      "_will_": 4316,
      "00": 4317,
      "Bless": 4318,
      "June": 4319,
      "Lor": 4320,
      "_Now": 4321,
      "fre": 4322,
      "gation": 4323,
      "gates": 4324,
      "latter": 4325,
      "scold": 4326,
      "ton": 4327,
      "wid": 4328,
      "ys": 4329,
      "zeal": 4330,
      "informed": 4331,
      "revi": 4332,
      "enli": 4333,
      "becomes": 4334,
      "ste": 4335,
      "uted": 4336,
      "deli": 4337,
      "deemed": 4338,
      "demand": 4339,
      "forth": 4340,
      "forgiven": 4341,
      "idle": 4342,
      "comb": 4343,
      "modest": 4344,
      "model": 4345,
      "amount": 4346,
      "unwell": 4347,
      "unlike": 4348,
      "unusual": 4349,
      "unconscious": 4350,
      "artless": 4351,
      "perience": 4352,
      "arrive": 4353,
      "exposed": 4354,
      "experience": 4355,
      "outward": 4356,
      "shif": 4357,
      "accompan": 4358,
      "foreseen": 4359,
      "thoughtless": 4360,
      "abouts": 4361,
      "beforehand": 4362,
      "sery": 4363,
      "opposed": 4364,
      "twice": 4365,
      "talks": 4366,
      "ancing": 4367,
      "cked": 4368,
      "commission": 4369,
      "hears": 4370,
      "contained": 4371,
      "containing": 4372,
      "stor": 4373,
      "farm": 4374,
      "engross": 4375,
      "obligation": 4376,
      "calls": 4377,
      "implied": 4378,
      "downstairs": 4379,
      "hardship": 4380,
      "property": 4381,
      "lord": 4382,
      "shews": 4383,
      "bearing": 4384,
      "related": 4385,
      "declining": 4386,
      "running": 4387,
      "remains": 4388,
      "anxiously": 4389,
      "quickly": 4390,
      "marked": 4391,
      "pale": 4392,
      "slightest": 4393,
      "shoes": 4394,
      "offering": 4395,
      "confident": 4396,
      "holds": 4397,
      "griev": 4398,
      "Before": 4399,
      "earnestness": 4400,
      "separation": 4401,
      "wretchedness": 4402,
      "thousands": 4403,
      "modern": 4404,
      "negli": 4405,
      "provided": 4406,
      "avoided": 4407,
      "entertainment": 4408,
      "apology": 4409,
      "accent": 4410,
      "supplied": 4411,
      "sket": 4412,
      "donkey": 4413,
      "boasted": 4414,
      "nodding": 4415,
      "promoted": 4416,
      "basin": 4417,
      "nursery": 4418,
      "arrowroot": 4419,
      "injured": 4420,
      "prosperous": 4421,
      "conundrum": 4422,
      "study": 4423,
      "Pleasant": 4424,
      "Lord": 4425,
      "_Now_": 4426,
      "enliven": 4427,
      ",--\"": 4428,
      ";\"--": 4429,
      "Bate": 4430,
      "Men": 4431,
      "True": 4432,
      "Wall": 4433,
      "Wright": 4434,
      "ah": 4435,
      "bing": 4436,
      "bation": 4437,
      "cry": 4438,
      "dent": 4439,
      "dwe": 4440,
      "dain": 4441,
      "fate": 4442,
      "fanc": 4443,
      "gest": 4444,
      "game": 4445,
      "ivers": 4446,
      "kinde": 4447,
      "nin": 4448,
      "nar": 4449,
      "rant": 4450,
      "soul": 4451,
      "tid": 4452,
      "vag": 4453,
      "inher": 4454,
      "reject": 4455,
      "asse": 4456,
      "notion": 4457,
      "imens": 4458,
      "rible": 4459,
      "wet": 4460,
      "ctually": 4461,
      "liable": 4462,
      "fee": 4463,
      "fection": 4464,
      "rode": 4465,
      "ters": 4466,
      "amiss": 4467,
      "unnoticed": 4468,
      "univers": 4469,
      "pertur": 4470,
      "arriving": 4471,
      "expose": 4472,
      "acity": 4473,
      "plea": 4474,
      "prejud": 4475,
      "ulate": 4476,
      "disper": 4477,
      "disinterested": 4478,
      "disdain": 4479,
      "somewhat": 4480,
      "upper": 4481,
      "shaking": 4482,
      "youngest": 4483,
      "box": 4484,
      "talkative": 4485,
      "supplanted": 4486,
      "trees": 4487,
      "gue": 4488,
      "isted": 4489,
      "effort": 4490,
      "broke": 4491,
      "advent": 4492,
      "musing": 4493,
      "continuing": 4494,
      "pleasantest": 4495,
      "horrible": 4496,
      "brothers": 4497,
      "finish": 4498,
      "exception": 4499,
      "requisite": 4500,
      "honoured": 4501,
      "enjoying": 4502,
      "occasioned": 4503,
      "tendency": 4504,
      "recommending": 4505,
      "patient": 4506,
      "persuading": 4507,
      "conceited": 4508,
      "assisting": 4509,
      "riddle": 4510,
      "capital": 4511,
      "fearful": 4512,
      "distressed": 4513,
      "die": 4514,
      "dict": 4515,
      "communications": 4516,
      "hesitate": 4517,
      "destined": 4518,
      "convenience": 4519,
      "belonging": 4520,
      "preparatory": 4521,
      "repeatedly": 4522,
      "strengthened": 4523,
      "sized": 4524,
      "variety": 4525,
      "admirer": 4526,
      "ostler": 4527,
      "complaints": 4528,
      "tranquil": 4529,
      "fetch": 4530,
      "stooping": 4531,
      "hastily": 4532,
      "accordingly": 4533,
      "discerned": 4534,
      "sincer": 4535,
      "cottage": 4536,
      "degradation": 4537,
      "imaginary": 4538,
      "perpetual": 4539,
      "decorum": 4540,
      "cautious": 4541,
      "benevolence": 4542,
      "Bateses": 4543,
      "dwelt": 4544,
      "fanciful": 4545,
      "kindest": 4546,
      "rejected": 4547,
      "assembled": 4548,
      "perturbation": 4549,
      "sincerity": 4550,
      ".)": 4551,
      "Am": 4552,
      "Fort": 4553,
      "Lo": 4554,
      "Mid": 4555,
      "_we": 4556,
      "_must": 4557,
      "_just": 4558,
      "cast": 4559,
      "dwell": 4560,
      "darted": 4561,
      "glo": 4562,
      "hill": 4563,
      "ore": 4564,
      "pha": 4565,
      "pang": 4566,
      "ts": 4567,
      "uine": 4568,
      "voured": 4569,
      "ze": 4570,
      "heir": 4571,
      "rese": 4572,
      "below": 4573,
      "bewit": 4574,
      "orn": 4575,
      "arose": 4576,
      "stret": 4577,
      "secl": 4578,
      "noticing": 4579,
      "improper": 4580,
      "uttered": 4581,
      "defic": 4582,
      "sull": 4583,
      "alpha": 4584,
      "mead": 4585,
      "method": 4586,
      "idable": 4587,
      "aded": 4588,
      "aming": 4589,
      "amends": 4590,
      "dozen": 4591,
      "unlikely": 4592,
      "unpersuadable": 4593,
      "local": 4594,
      "mystery": 4595,
      "teach": 4596,
      "presence": 4597,
      "procuring": 4598,
      "somehow": 4599,
      "somewhere": 4600,
      "usal": 4601,
      "spec": 4602,
      "shape": 4603,
      "intending": 4604,
      "longest": 4605,
      "undertaking": 4606,
      "evenings": 4607,
      "ounds": 4608,
      "treas": 4609,
      "tted": 4610,
      "desire": 4611,
      "blank": 4612,
      "vial": 4613,
      "misunderstandings": 4614,
      "genuine": 4615,
      "clearer": 4616,
      "allowable": 4617,
      "imped": 4618,
      "chamber": 4619,
      "resolutely": 4620,
      "advance": 4621,
      "accountable": 4622,
      "beautifull": 4623,
      "finery": 4624,
      "cordi": 4625,
      "deserving": 4626,
      "deserves": 4627,
      "pays": 4628,
      "suspecting": 4629,
      "conceive": 4630,
      "summon": 4631,
      "regretted": 4632,
      "events": 4633,
      "delayed": 4634,
      "inferred": 4635,
      "occupation": 4636,
      "steadiness": 4637,
      "brief": 4638,
      "attendance": 4639,
      "endeavoured": 4640,
      "eats": 4641,
      "sighing": 4642,
      "assuming": 4643,
      "build": 4644,
      "various": 4645,
      "sickly": 4646,
      "nicely": 4647,
      "consulting": 4648,
      "consulted": 4649,
      "remonstr": 4650,
      "liter": 4651,
      "skin": 4652,
      "skill": 4653,
      "injury": 4654,
      "shameful": 4655,
      "rapidity": 4656,
      "softness": 4657,
      "checked": 4658,
      "devoted": 4659,
      "brighter": 4660,
      "discretion": 4661,
      "itality": 4662,
      "promote": 4663,
      "abruptly": 4664,
      "dissip": 4665,
      "witnessed": 4666,
      "slave": 4667,
      "accidental": 4668,
      "insolent": 4669,
      "elev": 4670,
      "roused": 4671,
      "joyous": 4672,
      "ridiculous": 4673,
      "tranquillity": 4674,
      "comprehension": 4675,
      "hospitality": 4676,
      "residence": 4677,
      "fatigued": 4678,
      "departure": 4679,
      "desperate": 4680,
      "negligent": 4681,
      "Look": 4682,
      "_we_": 4683,
      "_must_": 4684,
      "_just_": 4685,
      "gloom": 4686,
      "seclusion": 4687,
      "alphabet": 4688,
      "meadows": 4689,
      "beautifully": 4690,
      "cordially": 4691,
      ":'--": 4692,
      "Bond": 4693,
      "Either": 4694,
      "Ser": 4695,
      "_is": 4696,
      "_all": 4697,
      "_them": 4698,
      "bow": 4699,
      "dirty": 4700,
      "fif": 4701,
      "freed": 4702,
      "hom": 4703,
      "la": 4704,
      "ls": 4705,
      "heated": 4706,
      "inch": 4707,
      "inim": 4708,
      "incess": 4709,
      "insensible": 4710,
      "rew": 4711,
      "thed": 4712,
      "erous": 4713,
      "itions": 4714,
      "itary": 4715,
      "env": 4716,
      "aspar": 4717,
      "beer": 4718,
      "bewild": 4719,
      "leve": 4720,
      "sted": 4721,
      "threw": 4722,
      "hate": 4723,
      "defi": 4724,
      "deem": 4725,
      "along": 4726,
      "altered": 4727,
      "weigh": 4728,
      "sober": 4729,
      "cting": 4730,
      "odig": 4731,
      "whist": 4732,
      "agus": 4733,
      "contempt": 4734,
      "sale": 4735,
      "amation": 4736,
      "unsuitable": 4737,
      "unreasonably": 4738,
      "itty": 4739,
      "mans": 4740,
      "disgrac": 4741,
      "plenty": 4742,
      "ivete": 4743,
      "eving": 4744,
      "ils": 4745,
      "sport": 4746,
      "grant": 4747,
      "indebt": 4748,
      "prodig": 4749,
      "moral": 4750,
      "passable": 4751,
      "believing": 4752,
      "joint": 4753,
      "brings": 4754,
      "kingdom": 4755,
      "rightly": 4756,
      "considerate": 4757,
      "Whatever": 4758,
      "clevere": 4759,
      "fices": 4760,
      "famous": 4761,
      "appearances": 4762,
      "charades": 4763,
      "answering": 4764,
      "scrup": 4765,
      "feelingly": 4766,
      "playful": 4767,
      "formal": 4768,
      "humili": 4769,
      "painful": 4770,
      "fondly": 4771,
      "fondness": 4772,
      "conversable": 4773,
      "questioned": 4774,
      "encourage": 4775,
      "approve": 4776,
      "approving": 4777,
      "runk": 4778,
      "III": 4779,
      "collecting": 4780,
      "bitable": 4781,
      "indubitable": 4782,
      "intelligent": 4783,
      "indulging": 4784,
      "principles": 4785,
      "numerous": 4786,
      "comprehending": 4787,
      "varied": 4788,
      "sounds": 4789,
      "addressed": 4790,
      "writer": 4791,
      "example": 4792,
      "practised": 4793,
      "entreaties": 4794,
      "Coxes": 4795,
      "affectedly": 4796,
      "moderately": 4797,
      "selfishness": 4798,
      "announced": 4799,
      "candour": 4800,
      "suggested": 4801,
      "topics": 4802,
      "ignorance": 4803,
      "errors": 4804,
      "maintain": 4805,
      "transcri": 4806,
      "exclamation": 4807,
      "representing": 4808,
      "representation": 4809,
      "explained": 4810,
      "designs": 4811,
      "pronounced": 4812,
      "punishment": 4813,
      "divided": 4814,
      "demure": 4815,
      "surrounded": 4816,
      "Impossible": 4817,
      "naivete": 4818,
      "benefit": 4819,
      "screen": 4820,
      "accompanied": 4821,
      "_is_": 4822,
      "_all_": 4823,
      "_them_": 4824,
      "fifty": 4825,
      "homes": 4826,
      "inimitable": 4827,
      "incessant": 4828,
      "asparagus": 4829,
      "bewildered": 4830,
      "level": 4831,
      "disgraced": 4832,
      "indebted": 4833,
      "cleverer": 4834,
      "scrupulous": 4835,
      "humiliation": 4836,
      "Ast": 4837,
      "IX": 4838,
      "Lad": 4839,
      "Un": 4840,
      "Wind": 4841,
      "_here": 4842,
      "cough": 4843,
      "cuse": 4844,
      "cruel": 4845,
      "dul": 4846,
      "eces": 4847,
      "gate": 4848,
      "hit": 4849,
      "hung": 4850,
      "ia": 4851,
      "kno": 4852,
      "mour": 4853,
      "nut": 4854,
      "oy": 4855,
      "rance": 4856,
      "tz": 4857,
      "tree": 4858,
      "uous": 4859,
      "vity": 4860,
      "infection": 4861,
      "enlar": 4862,
      "isk": 4863,
      "edness": 4864,
      "llow": 4865,
      "lecture": 4866,
      "vert": 4867,
      "ribut": 4868,
      "suits": 4869,
      "alive": 4870,
      "owes": 4871,
      "condes": 4872,
      "contem": 4873,
      "constru": 4874,
      "poign": 4875,
      "unknown": 4876,
      "unlucky": 4877,
      "perceiving": 4878,
      "pless": 4879,
      "prose": 4880,
      "prote": 4881,
      "provision": 4882,
      "dispar": 4883,
      "disclo": 4884,
      "disappearance": 4885,
      "yours": 4886,
      "usable": 4887,
      "partially": 4888,
      "worship": 4889,
      "ilar": 4890,
      "obst": 4891,
      "aff": 4892,
      "Woodhouses": 4893,
      "sphere": 4894,
      "space": 4895,
      "attribut": 4896,
      "boot": 4897,
      "appeal": 4898,
      "lessen": 4899,
      "brisk": 4900,
      "cheap": 4901,
      "black": 4902,
      "guilt": 4903,
      "voices": 4904,
      "fewer": 4905,
      "understands": 4906,
      "county": 4907,
      "oftener": 4908,
      "allowing": 4909,
      "expectations": 4910,
      "dealing": 4911,
      "chaise": 4912,
      "spot": 4913,
      "sposo": 4914,
      "eff": 4915,
      "gratifying": 4916,
      "promises": 4917,
      "prominent": 4918,
      "scattered": 4919,
      "reluct": 4920,
      "safest": 4921,
      "excusable": 4922,
      "deno": 4923,
      "yellow": 4924,
      "silver": 4925,
      "silenced": 4926,
      "retract": 4927,
      "someness": 4928,
      "consequently": 4929,
      "guessing": 4930,
      "division": 4931,
      "producing": 4932,
      "chuses": 4933,
      "effectually": 4934,
      "alarms": 4935,
      "pushed": 4936,
      "caro": 4937,
      "blushing": 4938,
      "similar": 4939,
      "educated": 4940,
      "privations": 4941,
      "inferiority": 4942,
      "Excuse": 4943,
      "preparations": 4944,
      "concluding": 4945,
      "clearness": 4946,
      "books": 4947,
      "striking": 4948,
      "explanations": 4949,
      "contribut": 4950,
      "examining": 4951,
      "papers": 4952,
      "maids": 4953,
      "flattery": 4954,
      "signify": 4955,
      "inconvenient": 4956,
      "avoiding": 4957,
      "foolishly": 4958,
      "requires": 4959,
      "amazing": 4960,
      "amazed": 4961,
      "vexed": 4962,
      "lime": 4963,
      "excluded": 4964,
      "unwillingness": 4965,
      "cooler": 4966,
      "conjecture": 4967,
      "discoveries": 4968,
      "honestly": 4969,
      "ingenious": 4970,
      "ceremonious": 4971,
      "renewed": 4972,
      "driving": 4973,
      "expediency": 4974,
      "advised": 4975,
      "esteem": 4976,
      "walnut": 4977,
      "waltz": 4978,
      "stupid": 4979,
      "Delight": 4980,
      "floor": 4981,
      "device": 4982,
      "cousins": 4983,
      "bestowed": 4984,
      "falsehood": 4985,
      "infant": 4986,
      "ava": 4987,
      "dentist": 4988,
      "Astley": 4989,
      "Windsor": 4990,
      "_here_": 4991,
      "dulness": 4992,
      "enlarged": 4993,
      "condesc": 4994,
      "contempl": 4995,
      "poignant": 4996,
      "disparity": 4997,
      "disclosure": 4998,
      "walnuts": 4999,
      "Bir": 5000,
      "Dece": 5001,
      "Humph": 5002,
      "Kitty": 5003,
      "Pro": 5004,
      "Sto": 5005,
      "Vanity": 5006,
      "_his": 5007,
      "bent": 5008,
      "bought": 5009,
      "drove": 5010,
      "emotion": 5011,
      "glar": 5012,
      "iving": 5013,
      "job": 5014,
      "lin": 5015,
      "mil": 5016,
      "naming": 5017,
      "pure": 5018,
      "push": 5019,
      "rough": 5020,
      "sources": 5021,
      "tract": 5022,
      "taining": 5023,
      "ule": 5024,
      "wand": 5025,
      "yer": 5026,
      "itly": 5027,
      "itate": 5028,
      "encum": 5029,
      "stable": 5030,
      "sees": 5031,
      "impressed": 5032,
      "deb": 5033,
      "rice": 5034,
      "weight": 5035,
      "odious": 5036,
      "confer": 5037,
      "confirm": 5038,
      "quate": 5039,
      "unfit": 5040,
      "unpretending": 5041,
      "kest": 5042,
      "perception": 5043,
      "exact": 5044,
      "ache": 5045,
      "proves": 5046,
      "thanking": 5047,
      "shoulders": 5048,
      "foresee": 5049,
      "!--(": 5050,
      "dering": 5051,
      "likewise": 5052,
      "fortitude": 5053,
      "sentence": 5054,
      "consist": 5055,
      "overhearing": 5056,
      "cking": 5057,
      "hereabouts": 5058,
      "visions": 5059,
      "aud": 5060,
      "comforted": 5061,
      "contrive": 5062,
      "stores": 5063,
      "handwriting": 5064,
      "oblige": 5065,
      "ceptions": 5066,
      "surd": 5067,
      "flattered": 5068,
      "spirited": 5069,
      "openness": 5070,
      "confesses": 5071,
      "supersed": 5072,
      "cession": 5073,
      "refined": 5074,
      "stray": 5075,
      "invent": 5076,
      "fted": 5077,
      "accounts": 5078,
      "trivial": 5079,
      "continually": 5080,
      "Soon": 5081,
      "beauties": 5082,
      "headed": 5083,
      "headache": 5084,
      "smaller": 5085,
      "breeding": 5086,
      "watering": 5087,
      "elegantly": 5088,
      "adequate": 5089,
      "divisions": 5090,
      "introducing": 5091,
      "breaking": 5092,
      "tolerate": 5093,
      "lawyer": 5094,
      "wiser": 5095,
      "madness": 5096,
      "Three": 5097,
      "Bella": 5098,
      "principle": 5099,
      "formerly": 5100,
      "Both": 5101,
      "dearer": 5102,
      "recollecting": 5103,
      "confession": 5104,
      "concluded": 5105,
      "provide": 5106,
      "endeavouring": 5107,
      "exertions": 5108,
      "curtain": 5109,
      "successfully": 5110,
      "astonishing": 5111,
      "apparently": 5112,
      "humanity": 5113,
      "nephews": 5114,
      "animating": 5115,
      "neglected": 5116,
      "proposals": 5117,
      "submit": 5118,
      "sanction": 5119,
      "staircase": 5120,
      "third": 5121,
      "additional": 5122,
      "fashioned": 5123,
      "candles": 5124,
      "draper": 5125,
      "lamenting": 5126,
      "mblance": 5127,
      "devotion": 5128,
      "directions": 5129,
      "indisposed": 5130,
      "original": 5131,
      "resuming": 5132,
      "shrubs": 5133,
      "latest": 5134,
      "Alas": 5135,
      "supplying": 5136,
      "disagreement": 5137,
      "loudly": 5138,
      "ivity": 5139,
      "Heavens": 5140,
      "recent": 5141,
      "learn": 5142,
      "dissuade": 5143,
      "frozen": 5144,
      "stranger": 5145,
      "quickest": 5146,
      "ribbon": 5147,
      "Sixteen": 5148,
      "shark": 5149,
      "privilege": 5150,
      "jealousy": 5151,
      "impertinent": 5152,
      "detail": 5153,
      "unpardonable": 5154,
      "cheeks": 5155,
      "resigned": 5156,
      "widow": 5157,
      "Wallis": 5158,
      "tidings": 5159,
      "Midsummer": 5160,
      "resemblance": 5161,
      "remonstrance": 5162,
      "construction": 5163,
      "December": 5164,
      "Stokes": 5165,
      "_his_": 5166,
      "glaring": 5167,
      "superseded": 5168,
      "Bad": 5169,
      "Broad": 5170,
      "Char": 5171,
      "Eleg": 5172,
      "Farm": 5173,
      "Ir": 5174,
      "Le": 5175,
      "Ph": 5176,
      "Re": 5177,
      "Res": 5178,
      "Ric": 5179,
      "Yet": 5180,
      "_Mrs": 5181,
      "_say": 5182,
      "_should": 5183,
      "_You": 5184,
      "cus": 5185,
      "dined": 5186,
      "died": 5187,
      "gif": 5188,
      "glor": 5189,
      "litt": 5190,
      "lane": 5191,
      "mutter": 5192,
      "mount": 5193,
      "nesses": 5194,
      "passes": 5195,
      "pounds": 5196,
      "rat": 5197,
      "sins": 5198,
      "uction": 5199,
      "vicarage": 5200,
      "wives": 5201,
      "xter": 5202,
      "reward": 5203,
      "recall": 5204,
      "reception": 5205,
      "ones": 5206,
      "haut": 5207,
      "itute": 5208,
      "enance": 5209,
      "ishes": 5210,
      "ascertain": 5211,
      "thither": 5212,
      "seas": 5213,
      "velo": 5214,
      "hating": 5215,
      "ims": 5216,
      "improperly": 5217,
      "dete": 5218,
      "deference": 5219,
      "deliber": 5220,
      "deplore": 5221,
      "dexter": 5222,
      "river": 5223,
      "lip": 5224,
      "net": 5225,
      "ador": 5226,
      "saf": 5227,
      "quant": 5228,
      "amid": 5229,
      "unwelcome": 5230,
      "uninterrupted": 5231,
      "unhealthy": 5232,
      "unaccountable": 5233,
      "performer": 5234,
      "faces": 5235,
      "acute": 5236,
      "pres": 5237,
      "preci": 5238,
      "icious": 5239,
      "icated": 5240,
      "indicated": 5241,
      "ulse": 5242,
      "prophe": 5243,
      "Its": 5244,
      "worn": 5245,
      "spection": 5246,
      "goose": 5247,
      "airy": 5248,
      "airing": 5249,
      "friendliness": 5250,
      "pleases": 5251,
      "happening": 5252,
      "covered": 5253,
      "intently": 5254,
      "longing": 5255,
      "underrated": 5256,
      "hereafter": 5257,
      "visible": 5258,
      "couragement": 5259,
      "subsequ": 5260,
      "solitary": 5261,
      "blow": 5262,
      "ainted": 5263,
      "agreeing": 5264,
      "surpass": 5265,
      "surmis": 5266,
      "parley": 5267,
      "Instead": 5268,
      "allowances": 5269,
      "impud": 5270,
      "foundation": 5271,
      "qualified": 5272,
      "north": 5273,
      "refusal": 5274,
      "suffic": 5275,
      "causes": 5276,
      "monarch": 5277,
      "wonders": 5278,
      "prettily": 5279,
      "throughout": 5280,
      "interfere": 5281,
      "trifle": 5282,
      "drawings": 5283,
      "usually": 5284,
      "relates": 5285,
      "excused": 5286,
      "formidable": 5287,
      "traordinary": 5288,
      "planning": 5289,
      "Dixons": 5290,
      "convincing": 5291,
      "appropri": 5292,
      "huswife": 5293,
      "husbands": 5294,
      "consequences": 5295,
      "ballroom": 5296,
      "ship_": 5297,
      "grows": 5298,
      "occurrence": 5299,
      "sadly": 5300,
      "ilip": 5301,
      "deduction": 5302,
      "industri": 5303,
      "extravag": 5304,
      "blinded": 5305,
      "caring": 5306,
      "Being": 5307,
      "Behold": 5308,
      "recovering": 5309,
      "observance": 5310,
      "disappointments": 5311,
      "contrition": 5312,
      "Extraordinary": 5313,
      "behindhand": 5314,
      "confessing": 5315,
      "vari": 5316,
      "entertained": 5317,
      "calmly": 5318,
      "excessive": 5319,
      "examination": 5320,
      "seemingly": 5321,
      "horseback": 5322,
      "practice": 5323,
      "practise": 5324,
      "miserably": 5325,
      "graceful": 5326,
      "blameless": 5327,
      "inducement": 5328,
      "twelvemonth": 5329,
      "rejoiced": 5330,
      "fatigues": 5331,
      "maintained": 5332,
      "maintenance": 5333,
      "indispens": 5334,
      "smoothness": 5335,
      "gardeners": 5336,
      "perplexities": 5337,
      "humouredly": 5338,
      "Tea": 5339,
      "affectation": 5340,
      "refreshing": 5341,
      "renewal": 5342,
      "pronounce": 5343,
      "repetitions": 5344,
      "exultation": 5345,
      "Augusta": 5346,
      "magist": 5347,
      "esteemed": 5348,
      "associate": 5349,
      "associates": 5350,
      "intellectual": 5351,
      "parents": 5352,
      "critical": 5353,
      "bonnet": 5354,
      "dissuaded": 5355,
      "Partridge": 5356,
      "barely": 5357,
      "vouchsafe": 5358,
      "energy": 5359,
      "quarrelled": 5360,
      "struggle": 5361,
      "gathering": 5362,
      "entitled": 5363,
      "perseverance": 5364,
      "significantly": 5365,
      "revived": 5366,
      "universally": 5367,
      "defiance": 5368,
      "prodigy": 5369,
      "knocked": 5370,
      "Charming": 5371,
      "Elegant": 5372,
      "Irish": 5373,
      "Leave": 5374,
      "Philip": 5375,
      "Richard": 5376,
      "_say_": 5377,
      "_should_": 5378,
      "_You_": 5379,
      "custom": 5380,
      "littleness": 5381,
      "quantity": 5382,
      "subsequent": 5383,
      "industriously": 5384,
      "extravagance": 5385,
      "indispensable": 5386,
      "8th": 5387,
      "Acc": 5388,
      "Ever": 5389,
      "Fri": 5390,
      "IN": 5391,
      "Wom": 5392,
      "_to": 5393,
      "ba": 5394,
      "bis": 5395,
      "chap": 5396,
      "dar": 5397,
      "dess": 5398,
      "ement": 5399,
      "ecc": 5400,
      "gance": 5401,
      "gloves": 5402,
      "hanging": 5403,
      "iences": 5404,
      "kings": 5405,
      "lent": 5406,
      "oat": 5407,
      "oting": 5408,
      "pom": 5409,
      "pup": 5410,
      "pages": 5411,
      "rout": 5412,
      "sco": 5413,
      "sang": 5414,
      "tic": 5415,
      "ucy": 5416,
      "inct": 5417,
      "insincere": 5418,
      "rever": 5419,
      "render": 5420,
      "reminded": 5421,
      "erate": 5422,
      "hasty": 5423,
      "itche": 5424,
      "isy": 5425,
      "ases": 5426,
      "assent": 5427,
      "ashes": 5428,
      "edience": 5429,
      "lls": 5430,
      "noisy": 5431,
      "atively": 5432,
      "ording": 5433,
      "arro": 5434,
      "stone": 5435,
      "stout": 5436,
      "--,": 5437,
      "imparted": 5438,
      "impropriety": 5439,
      "deplor": 5440,
      "ric": 5441,
      "entric": 5442,
      "allev": 5443,
      "allusion": 5444,
      "alluded": 5445,
      "liation": 5446,
      "eternal": 5447,
      "abhor": 5448,
      "advoc": 5449,
      "ague": 5450,
      "agony": 5451,
      "mode": 5452,
      "rosses": 5453,
      "saucy": 5454,
      "pol": 5455,
      "unite": 5456,
      "unconcerned": 5457,
      "arest": 5458,
      "ourishing": 5459,
      "preced": 5460,
      "ical": 5461,
      "proposition": 5462,
      "footing": 5463,
      "usible": 5464,
      "everywhere": 5465,
      "goodwill": 5466,
      "obedience": 5467,
      "shared": 5468,
      "series": 5469,
      "rested": 5470,
      "restrain": 5471,
      "treacher": 5472,
      "seness": 5473,
      "ckhead": 5474,
      "offended": 5475,
      "igor": 5476,
      "lesson": 5477,
      "lessened": 5478,
      "stoma": 5479,
      "marking": 5480,
      "considers": 5481,
      "considerations": 5482,
      "agreeableness": 5483,
      "achi": 5484,
      "merited": 5485,
      "attentively": 5486,
      "allowance": 5487,
      "admiss": 5488,
      "untainted": 5489,
      "shortly": 5490,
      "advanced": 5491,
      "cuits": 5492,
      "trial": 5493,
      "gladly": 5494,
      "excite": 5495,
      "quivering": 5496,
      "closing": 5497,
      "purse": 5498,
      "portra": 5499,
      "helped": 5500,
      "dinners": 5501,
      "regarded": 5502,
      "dancer": 5503,
      "cured": 5504,
      "applied": 5505,
      "sweetly": 5506,
      "mission": 5507,
      "liveliness": 5508,
      "Without": 5509,
      "fearfully": 5510,
      "slightly": 5511,
      "communicate": 5512,
      "handsomely": 5513,
      "sights": 5514,
      "fastidious": 5515,
      "secresy": 5516,
      "pondered": 5517,
      "influenced": 5518,
      "indulgent": 5519,
      "pud": 5520,
      "concealing": 5521,
      "concealed": 5522,
      "solicited": 5523,
      "glancing": 5524,
      "desiring": 5525,
      "accomplishment": 5526,
      "consenting": 5527,
      "touched": 5528,
      "touches": 5529,
      "Cannot": 5530,
      "cutting": 5531,
      "inquiring": 5532,
      "compassionate": 5533,
      "apologise": 5534,
      "strictly": 5535,
      "connect": 5536,
      "absenting": 5537,
      "blockhead": 5538,
      "courtes": 5539,
      "examine": 5540,
      "practising": 5541,
      "Coxe": 5542,
      "smoothed": 5543,
      "pitied": 5544,
      "pitiful": 5545,
      "cooled": 5546,
      "declares": 5547,
      "amazement": 5548,
      "pettic": 5549,
      "chatter": 5550,
      "whispered": 5551,
      "liberality": 5552,
      "mutually": 5553,
      "mutton": 5554,
      "Christian": 5555,
      "principals": 5556,
      "delusion": 5557,
      "plausible": 5558,
      "neglecting": 5559,
      "embarrassed": 5560,
      "gaiety": 5561,
      "exulting": 5562,
      "correspondent": 5563,
      "alternative": 5564,
      "restrained": 5565,
      "divide": 5566,
      "magn": 5567,
      "eggs": 5568,
      "hesitatingly": 5569,
      "threatening": 5570,
      "jump": 5571,
      "surrounding": 5572,
      "folding": 5573,
      "coarse": 5574,
      "puzzled": 5575,
      "reckoned": 5576,
      "quarrelling": 5577,
      "calculate": 5578,
      "calculated": 5579,
      "averted": 5580,
      "displays": 5581,
      "subduing": 5582,
      "subdued": 5583,
      "culture": 5584,
      "reconciliation": 5585,
      "diffuse": 5586,
      "delicious": 5587,
      "storm": 5588,
      "Lords": 5589,
      "enlivened": 5590,
      "narr": 5591,
      "ornament": 5592,
      "deficiency": 5593,
      "specimens": 5594,
      "building": 5595,
      "Serle": 5596,
      "contemptible": 5597,
      "transcribed": 5598,
      "Ladies": 5599,
      "avail": 5600,
      "encumbrance": 5601,
      "According": 5602,
      "Friday": 5603,
      "_to_": 5604,
      "biscuits": 5605,
      "dessert": 5606,
      "eccentric": 5607,
      "pomp": 5608,
      "reverie": 5609,
      "arrogance": 5610,
      "deplorable": 5611,
      "allevi": 5612,
      "advocate": 5613,
      "treachery": 5614,
      "petticoat": 5615,
      ":\"--": 5616,
      ";'": 5617,
      "Adel": 5618,
      "Con": 5619,
      "Capt": 5620,
      "Din": 5621,
      "LU": 5622,
      "La": 5623,
      "ME": 5624,
      "Man": 5625,
      "Mad": 5626,
      "Might": 5627,
      "Mark": 5628,
      "Oc": 5629,
      "OLU": 5630,
      "Place": 5631,
      "Se": 5632,
      "Since": 5633,
      "Take": 5634,
      "Ven": 5635,
      "VOLU": 5636,
      "_he": 5637,
      "_Miss": 5638,
      "_some": 5639,
      "_us": 5640,
      "_little": 5641,
      "_first": 5642,
      "athe": 5643,
      "aide": 5644,
      "bal": 5645,
      "bend": 5646,
      "bility": 5647,
      "bake": 5648,
      "cis": 5649,
      "chas": 5650,
      "das": 5651,
      "drank": 5652,
      "dial": 5653,
      "ff": 5654,
      "faint": 5655,
      "gam": 5656,
      "mill": 5657,
      "marri": 5658,
      "pan": 5659,
      "rare": 5660,
      "rity": 5661,
      "shad": 5662,
      "sca": 5663,
      "tions": 5664,
      "uno": 5665,
      "uce": 5666,
      "vill": 5667,
      "vive": 5668,
      "inet": 5669,
      "inju": 5670,
      "inations": 5671,
      "inexpress": 5672,
      "incred": 5673,
      "inconsiderate": 5674,
      "rer": 5675,
      "rele": 5676,
      "reign": 5677,
      "reproof": 5678,
      "thest": 5679,
      "onlight": 5680,
      "tober": 5681,
      "itia": 5682,
      "enqu": 5683,
      "enness": 5684,
      "beat": 5685,
      "behave": 5686,
      "beau": 5687,
      "behaving": 5688,
      "stra": 5689,
      "securing": 5690,
      "imposed": 5691,
      "dead": 5692,
      "defin": 5693,
      "delive": 5694,
      "deceive": 5695,
      "forlor": 5696,
      "rily": 5697,
      "ential": 5698,
      "aled": 5699,
      "alac": 5700,
      "welf": 5701,
      "alloy": 5702,
      "irk": 5703,
      "soo": 5704,
      "sold": 5705,
      "owing": 5706,
      "likes": 5707,
      "feign": 5708,
      "illed": 5709,
      "mul": 5710,
      "moonlight": 5711,
      "poem": 5712,
      "poison": 5713,
      "amor": 5714,
      "doating": 5715,
      "union": 5716,
      "unsuspected": 5717,
      "unfeign": 5718,
      "ightforward": 5719,
      "perform": 5720,
      "perverse": 5721,
      "lovers": 5722,
      "extens": 5723,
      "essential": 5724,
      "preval": 5725,
      "ician": 5726,
      "ulated": 5727,
      "owned": 5728,
      "dispe": 5729,
      "disci": 5730,
      "dispen": 5731,
      "disorder": 5732,
      "displayed": 5733,
      "discomposed": 5734,
      "plant": 5735,
      "pline": 5736,
      "everyday": 5737,
      "beings": 5738,
      "forebod": 5739,
      "orted": 5740,
      "obtru": 5741,
      "tende": 5742,
      "dears": 5743,
      "cler": 5744,
      "justified": 5745,
      "attract": 5746,
      "harb": 5747,
      "boil": 5748,
      "umbre": 5749,
      "restless": 5750,
      "smith": 5751,
      "offend": 5752,
      "igning": 5753,
      "loveliness": 5754,
      "commit": 5755,
      "stock": 5756,
      "replies": 5757,
      "farming": 5758,
      "farthest": 5759,
      "gets": 5760,
      "lasted": 5761,
      "miscon": 5762,
      "misconduct": 5763,
      "misunderstood": 5764,
      "acquired": 5765,
      "surpr": 5766,
      "delights": 5767,
      "imputed": 5768,
      "judicious": 5769,
      "interests": 5770,
      "gentlewoman": 5771,
      "unequi": 5772,
      "minor": 5773,
      "backgam": 5774,
      "string": 5775,
      "Perrys": 5776,
      "broken": 5777,
      "advances": 5778,
      "conduce": 5779,
      "fairy": 5780,
      "insisted": 5781,
      "complimentary": 5782,
      "forms": 5783,
      "purchas": 5784,
      "portions": 5785,
      "cheering": 5786,
      "venturing": 5787,
      "dependent": 5788,
      "helpless": 5789,
      "breath": 5790,
      "breathing": 5791,
      "breathe": 5792,
      "laying": 5793,
      "including": 5794,
      "inclinations": 5795,
      "listening": 5796,
      "morrows": 5797,
      "papas": 5798,
      "capt": 5799,
      "proceedings": 5800,
      "luckiest": 5801,
      "profusion": 5802,
      "placing": 5803,
      "reflected": 5804,
      "suddenness": 5805,
      "wisest": 5806,
      "remote": 5807,
      "preventing": 5808,
      "humourist": 5809,
      "Things": 5810,
      "regularly": 5811,
      "born": 5812,
      "congratulating": 5813,
      "Except": 5814,
      "convictions": 5815,
      "Anne": 5816,
      "trusting": 5817,
      "frightful": 5818,
      "comprehended": 5819,
      "exerting": 5820,
      "successful": 5821,
      "prepare": 5822,
      "comparative": 5823,
      "arrangements": 5824,
      "richly": 5825,
      "strikes": 5826,
      "objections": 5827,
      "relieve": 5828,
      "interruptions": 5829,
      "possessed": 5830,
      "flattering": 5831,
      "reproaching": 5832,
      "Whoever": 5833,
      "measures": 5834,
      "shamefully": 5835,
      "VIII": 5836,
      "suppers": 5837,
      "strawberry": 5838,
      "announcing": 5839,
      "darker": 5840,
      "suggestions": 5841,
      "footpath": 5842,
      "restore": 5843,
      "--------": 5844,
      "preserve": 5845,
      "seizure": 5846,
      "prudent": 5847,
      "provoked": 5848,
      "vulgarity": 5849,
      "stoops": 5850,
      "whispering": 5851,
      "gaze": 5852,
      "____": 5853,
      "flesh": 5854,
      "cotton": 5855,
      "criticising": 5856,
      "threatened": 5857,
      "projects": 5858,
      "apartment": 5859,
      "submission": 5860,
      "quicken": 5861,
      "pursuing": 5862,
      "contradiction": 5863,
      "Happy": 5864,
      "Happily": 5865,
      "salary": 5866,
      "virtue": 5867,
      "virtues": 5868,
      "copied": 5869,
      "refinement": 5870,
      "XVI": 5871,
      "despatch": 5872,
      "freak": 5873,
      "sketch": 5874,
      "Fortun": 5875,
      "stretching": 5876,
      "sullenness": 5877,
      "effusion": 5878,
      "reluctance": 5879,
      "Delightful": 5880,
      "militia": 5881,
      "wander": 5882,
      "stables": 5883,
      "confirmation": 5884,
      "preciating": 5885,
      "Adelaide": 5886,
      "Captain": 5887,
      "Dinner": 5888,
      "October": 5889,
      "Venice": 5890,
      "VOLUME": 5891,
      "_he_": 5892,
      "_Miss_": 5893,
      "_some_": 5894,
      "_us_": 5895,
      "_little_": 5896,
      "_first_": 5897,
      "cision": 5898,
      "dialo": 5899,
      "million": 5900,
      "rarely": 5901,
      "scale": 5902,
      "incredible": 5903,
      "straightforward": 5904,
      "definition": 5905,
      "delivered": 5906,
      "forlorn": 5907,
      "alacrity": 5908,
      "welfare": 5909,
      "extensive": 5910,
      "discipline": 5911,
      "backgammon": 5912,
      "10": 5913,
      "Amb": 5914,
      "Actually": 5915,
      "Bar": 5916,
      "Balls": 5917,
      "Crom": 5918,
      "DS": 5919,
      "JU": 5920,
      "LY": 5921,
      "OR": 5922,
      "Pap": 5923,
      "Say": 5924,
      "Sir": 5925,
      "Wor": 5926,
      "WIN": 5927,
      "_our": 5928,
      "_Elton": 5929,
      "_has": 5930,
      "_There": 5931,
      "ais": 5932,
      "bi": 5933,
      "bra": 5934,
      "bank": 5935,
      "brances": 5936,
      "cation": 5937,
      "eur": 5938,
      "fu": 5939,
      "food": 5940,
      "falls": 5941,
      "faster": 5942,
      "gal": 5943,
      "gur": 5944,
      "gross": 5945,
      "gaining": 5946,
      "hue": 5947,
      "killed": 5948,
      "lou": 5949,
      "lain": 5950,
      "lashes": 5951,
      "mal": 5952,
      "nes": 5953,
      "ogy": 5954,
      "pent": 5955,
      "pond": 5956,
      "pired": 5957,
      "ram": 5958,
      "sne": 5959,
      "spl": 5960,
      "tart": 5961,
      "tac": 5962,
      "ttom": 5963,
      "uations": 5964,
      "vite": 5965,
      "vacity": 5966,
      "xcomb": 5967,
      "yond": 5968,
      "inno": 5969,
      "inspir": 5970,
      "infect": 5971,
      "involuntarily": 5972,
      "anal": 5973,
      "reple": 5974,
      "rend": 5975,
      "reappeared": 5976,
      "iture": 5977,
      "enable": 5978,
      "enrich": 5979,
      "asle": 5980,
      "aspired": 5981,
      "bearer": 5982,
      "ofold": 5983,
      "atious": 5984,
      "ars": 5985,
      "arse": 5986,
      "sell": 5987,
      "sevent": 5988,
      "secur": 5989,
      "verbal": 5990,
      "changing": 5991,
      "imming": 5992,
      "improved": 5993,
      "rides": 5994,
      "sued": 5995,
      "entive": 5996,
      "entrance": 5997,
      "aye": 5998,
      "als": 5999,
      "west": 6000,
      "alled": 6001,
      "irregular": 6002,
      "liest": 6003,
      "felic": 6004,
      "illing": 6005,
      "mult": 6006,
      "etite": 6007,
      "abusing": 6008,
      "absurd": 6009,
      "consumption": 6010,
      "pew": 6011,
      "ural": 6012,
      "urging": 6013,
      "saving": 6014,
      "terior": 6015,
      "amity": 6016,
      "unfeeling": 6017,
      "unnatural": 6018,
      "unfavourable": 6019,
      "unclosed": 6020,
      "loin": 6021,
      "exe": 6022,
      "exterior": 6023,
      "endour": 6024,
      "show": 6025,
      "shilling": 6026,
      "acing": 6027,
      "anty": 6028,
      "ulation": 6029,
      "ardent": 6030,
      "discourse": 6031,
      "plum": 6032,
      "plaint": 6033,
      "host": 6034,
      "hoarse": 6035,
      "affron": 6036,
      "cost": 6037,
      "coxcomb": 6038,
      "rences": 6039,
      "sentences": 6040,
      "undertakes": 6041,
      "oppress": 6042,
      "twofold": 6043,
      "bottom": 6044,
      "overpower": 6045,
      "intoler": 6046,
      "lightened": 6047,
      "diffid": 6048,
      "subjection": 6049,
      "doubtingly": 6050,
      "price": 6051,
      "minds": 6052,
      "augur": 6053,
      "committed": 6054,
      "solace": 6055,
      "presented": 6056,
      "handsom": 6057,
      "vivacity": 6058,
      "pointing": 6059,
      "pointedly": 6060,
      "fuller": 6061,
      "arms": 6062,
      "complais": 6063,
      "Invite": 6064,
      "flirt": 6065,
      "dealings": 6066,
      "pressingly": 6067,
      "confine": 6068,
      "respecting": 6069,
      "respected": 6070,
      "mingham": 6071,
      "wilf": 6072,
      "brocation": 6073,
      "carefully": 6074,
      "activity": 6075,
      "joyful": 6076,
      "embrocation": 6077,
      "scanty": 6078,
      "member": 6079,
      "completed": 6080,
      "claiming": 6081,
      "remembrances": 6082,
      "favouring": 6083,
      "concise": 6084,
      "aunted": 6085,
      "olent": 6086,
      "satisfies": 6087,
      "cloth": 6088,
      "amongst": 6089,
      "retentive": 6090,
      "patri": 6091,
      "Which": 6092,
      "commonplace": 6093,
      "appetite": 6094,
      "dangers": 6095,
      "trimming": 6096,
      "quietness": 6097,
      "sweetest": 6098,
      "sweetbread": 6099,
      "missing": 6100,
      "grandeur": 6101,
      "graver": 6102,
      "dreaded": 6103,
      "communicating": 6104,
      "communicative": 6105,
      "ordinarily": 6106,
      "secrecy": 6107,
      "calmer": 6108,
      "profits": 6109,
      "reflect": 6110,
      "admirable": 6111,
      "removing": 6112,
      "Think": 6113,
      "Beyond": 6114,
      "exclaiming": 6115,
      "privation": 6116,
      "snowing": 6117,
      "snowed": 6118,
      "atives": 6119,
      "buried": 6120,
      "ension": 6121,
      "ensible": 6122,
      "touching": 6123,
      "clearly": 6124,
      "closest": 6125,
      "sickness": 6126,
      "palp": 6127,
      "contriv": 6128,
      "proprieties": 6129,
      "distinguish": 6130,
      "distinguished": 6131,
      "familiar": 6132,
      "horsewoman": 6133,
      "wickedness": 6134,
      "ostensible": 6135,
      "pitiable": 6136,
      "replying": 6137,
      "voluntary": 6138,
      "ancies": 6139,
      "fashionable": 6140,
      "candid": 6141,
      "disgusting": 6142,
      "harmless": 6143,
      "limited": 6144,
      "preserving": 6145,
      "irritated": 6146,
      "designedly": 6147,
      "hazle": 6148,
      "determining": 6149,
      "risks": 6150,
      "basis": 6151,
      "softening": 6152,
      "applications": 6153,
      "correspondence": 6154,
      "cordiality": 6155,
      "complains": 6156,
      "intellects": 6157,
      "Considering": 6158,
      "degrading": 6159,
      "elderly": 6160,
      "estimation": 6161,
      "estimate": 6162,
      "applying": 6163,
      "furniture": 6164,
      "Going": 6165,
      "weariness": 6166,
      "reconcile": 6167,
      "Understanding": 6168,
      "despatched": 6169,
      "000": 6170,
      "scolded": 6171,
      "engrossing": 6172,
      "grievance": 6173,
      "prejudice": 6174,
      "dispersed": 6175,
      "bewitches": 6176,
      "impede": 6177,
      "elevation": 6178,
      "freedom": 6179,
      "envious": 6180,
      "weighs": 6181,
      "playfulness": 6182,
      "contemplation": 6183,
      "Birmingham": 6184,
      "linen": 6185,
      "Broadwood": 6186,
      "Remember": 6187,
      "gifted": 6188,
      "mounts": 6189,
      "deliberately": 6190,
      "polite": 6191,
      "achieved": 6192,
      "marries": 6193,
      "reigns": 6194,
      "Ambition": 6195,
      "Cromer": 6196,
      "DSOR": 6197,
      "JULY": 6198,
      "Papa": 6199,
      "Worse": 6200,
      "WINDSOR": 6201,
      "_our_": 6202,
      "_Elton_": 6203,
      "_has_": 6204,
      "_There_": 6205,
      "fuss": 6206,
      "louder": 6207,
      "splendour": 6208,
      "tacitly": 6209,
      "innoc": 6210,
      "infectious": 6211,
      "analogy": 6212,
      "replete": 6213,
      "rendering": 6214,
      "asleep": 6215,
      "seventeen": 6216,
      "security": 6217,
      "felicities": 6218,
      "multip": 6219,
      "plump": 6220,
      "plaintive": 6221,
      "affronted": 6222,
      "intolerable": 6223,
      "diffidence": 6224,
      "handsomest": 6225,
      "flirtation": 6226,
      "\"`": 6227,
      ").": 6228,
      "28th": 6229,
      "Bes": 6230,
      "Bus": 6231,
      "Bear": 6232,
      "Bick": 6233,
      "Gra": 6234,
      "Grand": 6235,
      "Ha": 6236,
      "Hal": 6237,
      "Having": 6238,
      "Kind": 6239,
      "Mis": 6240,
      "Manc": 6241,
      "More": 6242,
      "Pre": 6243,
      "Read": 6244,
      "Sup": 6245,
      "Sco": 6246,
      "Tis": 6247,
      "XI": 6248,
      "_my": 6249,
      "_bride": 6250,
      "_May": 6251,
      "_names": 6252,
      "_broke": 6253,
      "ale": 6254,
      "ban": 6255,
      "bable": 6256,
      "bby": 6257,
      "bound": 6258,
      "base": 6259,
      "bount": 6260,
      "cab": 6261,
      "cated": 6262,
      "centre": 6263,
      "eel": 6264,
      "emot": 6265,
      "etor": 6266,
      "fag": 6267,
      "fare": 6268,
      "gle": 6269,
      "hired": 6270,
      "hib": 6271,
      "ius": 6272,
      "kitche": 6273,
      "len": 6274,
      "lid": 6275,
      "lod": 6276,
      "lamp": 6277,
      "mble": 6278,
      "narrow": 6279,
      "owe": 6280,
      "pment": 6281,
      "pack": 6282,
      "psy": 6283,
      "pics": 6284,
      "pulse": 6285,
      "rred": 6286,
      "sme": 6287,
      "tour": 6288,
      "tland": 6289,
      "trunk": 6290,
      "udes": 6291,
      "vindicated": 6292,
      "witt": 6293,
      "wink": 6294,
      "wrap": 6295,
      "zed": 6296,
      "inu": 6297,
      "inspection": 6298,
      "anter": 6299,
      "remind": 6300,
      "reprob": 6301,
      "oup": 6302,
      "tosses": 6303,
      "aspers": 6304,
      "ingrat": 6305,
      "nove": 6306,
      "atte": 6307,
      "lean": 6308,
      "leful": 6309,
      "lelight": 6310,
      "stag": 6311,
      "chant": 6312,
      "lying": 6313,
      "escri": 6314,
      "uteness": 6315,
      "dece": 6316,
      "develo": 6317,
      "shel": 6318,
      "sheep": 6319,
      "shened": 6320,
      "ceiling": 6321,
      "forfe": 6322,
      "weary": 6323,
      "meat": 6324,
      "iring": 6325,
      "iding": 6326,
      "ctual": 6327,
      "lihood": 6328,
      "illnesses": 6329,
      "whims": 6330,
      "butter": 6331,
      "butcher": 6332,
      "comments": 6333,
      "conqu": 6334,
      "contre": 6335,
      "constr": 6336,
      "urous": 6337,
      "doom": 6338,
      "doleful": 6339,
      "unction": 6340,
      "unhappiness": 6341,
      "artlessness": 6342,
      "estation": 6343,
      "expert": 6344,
      "outcry": 6345,
      "essay": 6346,
      "shower": 6347,
      "acle": 6348,
      "acking": 6349,
      "accu": 6350,
      "acuteness": 6351,
      "teacher": 6352,
      "preted": 6353,
      "pretens": 6354,
      "indist": 6355,
      "indiv": 6356,
      "indescri": 6357,
      "protract": 6358,
      "ownish": 6359,
      "mental": 6360,
      "dispense": 6361,
      "discouragement": 6362,
      "usage": 6363,
      "usions": 6364,
      "hotter": 6365,
      "holid": 6366,
      "partake": 6367,
      "fied": 6368,
      "rannic": 6369,
      "rushed": 6370,
      "pleasanter": 6371,
      "shabby": 6372,
      "Young": 6373,
      "surely": 6374,
      "col": 6375,
      "cope": 6376,
      "cook": 6377,
      "erton": 6378,
      "erted": 6379,
      "rencontre": 6380,
      "reads": 6381,
      "idest": 6382,
      "opposition": 6383,
      "indelic": 6384,
      "indefinite": 6385,
      "cloud": 6386,
      "clownish": 6387,
      "hedges": 6388,
      "attitude": 6389,
      "attestation": 6390,
      "attacking": 6391,
      "harsh": 6392,
      "earn": 6393,
      "earned": 6394,
      "irements": 6395,
      "offences": 6396,
      "offices": 6397,
      "subs": 6398,
      "sition": 6399,
      "venness": 6400,
      "commend": 6401,
      "counsell": 6402,
      "gipsy": 6403,
      "contingen": 6404,
      "store": 6405,
      "complying": 6406,
      "blended": 6407,
      "blamed": 6408,
      "handed": 6409,
      "getic": 6410,
      "engra": 6411,
      "misinter": 6412,
      "vocal": 6413,
      "acquirements": 6414,
      "genius": 6415,
      "matches": 6416,
      "awake": 6417,
      "gently": 6418,
      "gentleness": 6419,
      "genteel": 6420,
      "parishes": 6421,
      "flown": 6422,
      "flower": 6423,
      "flame": 6424,
      "fluct": 6425,
      "fluttered": 6426,
      "flatte": 6427,
      "charged": 6428,
      "wholesomeness": 6429,
      "begins": 6430,
      "unevenness": 6431,
      "respectably": 6432,
      "addres": 6433,
      "unting": 6434,
      "distaste": 6435,
      "prizes": 6436,
      "actual": 6437,
      "observer": 6438,
      "accounting": 6439,
      "emp": 6440,
      "ernation": 6441,
      "draws": 6442,
      "insidious": 6443,
      "insinu": 6444,
      "continuance": 6445,
      "follows": 6446,
      "attaching": 6447,
      "plays": 6448,
      "denied": 6449,
      "tyrannic": 6450,
      "expressive": 6451,
      "thankfully": 6452,
      "excepted": 6453,
      "characters": 6454,
      "seriousness": 6455,
      "pathis": 6456,
      "easier": 6457,
      "tempers": 6458,
      "gravity": 6459,
      "marks": 6460,
      "capabilities": 6461,
      "caprice": 6462,
      "Within": 6463,
      "slighting": 6464,
      "sighted": 6465,
      "pondering": 6466,
      "absolute": 6467,
      "iliff": 6468,
      "profit": 6469,
      "About": 6470,
      "consternation": 6471,
      "hesitations": 6472,
      "worked": 6473,
      "admiring": 6474,
      "confidant": 6475,
      "conveniences": 6476,
      "holding": 6477,
      "enjoyments": 6478,
      "secrets": 6479,
      "describing": 6480,
      "duties": 6481,
      "purposely": 6482,
      "transition": 6483,
      "leads": 6484,
      "remarkable": 6485,
      "bordered": 6486,
      "serviceable": 6487,
      "congratulated": 6488,
      "glanced": 6489,
      "glasses": 6490,
      "eaten": 6491,
      "nieces": 6492,
      "separated": 6493,
      "recollected": 6494,
      "likenesses": 6495,
      "mixing": 6496,
      "clearing": 6497,
      "burn": 6498,
      "variously": 6499,
      "fools": 6500,
      "closely": 6501,
      "admires": 6502,
      "sympathis": 6503,
      "strict": 6504,
      "gravel": 6505,
      "humane": 6506,
      "accus": 6507,
      "contriving": 6508,
      "proprietor": 6509,
      "fatal": 6510,
      "freshness": 6511,
      "undoubting": 6512,
      "betraying": 6513,
      "simply": 6514,
      "amazingly": 6515,
      "thirteen": 6516,
      "partiality": 6517,
      "firmly": 6518,
      "Surprizes": 6519,
      "candlelight": 6520,
      "hester": 6521,
      "sacrifices": 6522,
      "topic": 6523,
      "ceaseless": 6524,
      "boasts": 6525,
      "transfer": 6526,
      "transgress": 6527,
      "irritate": 6528,
      "starting": 6529,
      "started": 6530,
      "dignified": 6531,
      "fetched": 6532,
      "Always": 6533,
      "weakness": 6534,
      "Whether": 6535,
      "drop": 6536,
      "refreshment": 6537,
      "involve": 6538,
      "faithful": 6539,
      "failures": 6540,
      "anticipation": 6541,
      "punctually": 6542,
      "punctual": 6543,
      "parcels": 6544,
      "tremblings": 6545,
      "recently": 6546,
      "learnt": 6547,
      "July": 6548,
      "Should": 6549,
      "stupidest": 6550,
      "demurred": 6551,
      "colours": 6552,
      "vocation": 6553,
      "jumped": 6554,
      "disturbance": 6555,
      "prosperity": 6556,
      "insolence": 6557,
      "submissive": 6558,
      "bitterly": 6559,
      "energetic": 6560,
      "strangest": 6561,
      "struggled": 6562,
      "furnish": 6563,
      "averting": 6564,
      "?'\"": 6565,
      "lists": 6566,
      "swelling": 6567,
      "persevering": 6568,
      "significant": 6569,
      "wounded": 6570,
      "diffident": 6571,
      "freshened": 6572,
      "stept": 6573,
      "unconsciously": 6574,
      "shift": 6575,
      "sketches": 6576,
      "treasure": 6577,
      "desires": 6578,
      "Uncle": 6579,
      "hungry": 6580,
      "uousness": 6581,
      "lectured": 6582,
      "protection": 6583,
      "obstacle": 6584,
      "attributed": 6585,
      "briskly": 6586,
      "denote": 6587,
      "condescension": 6588,
      "pushing": 6589,
      "debate": 6590,
      "consistent": 6591,
      "curtains": 6592,
      "muttering": 6593,
      "detected": 6594,
      "uninterruptedly": 6595,
      "surmised": 6596,
      "impudent": 6597,
      "sufficed": 6598,
      "Philippics": 6599,
      "bailiff": 6600,
      "pupp": 6601,
      "score": 6602,
      "modesty": 6603,
      "surprising": 6604,
      "Excepting": 6605,
      "----------,": 6606,
      "absurdity": 6607,
      "multiplied": 6608,
      "Besides": 6609,
      "Bickerton": 6610,
      "Graham": 6611,
      "Half": 6612,
      "Kindled": 6613,
      "Manchester": 6614,
      "Scotland": 6615,
      "_my_": 6616,
      "_bride_": 6617,
      "_May_": 6618,
      "_names_": 6619,
      "_broke_": 6620,
      "banished": 6621,
      "bountiful": 6622,
      "emotions": 6623,
      "fagged": 6624,
      "kitchen": 6625,
      "wittier": 6626,
      "reprobating": 6627,
      "aspersion": 6628,
      "novelt": 6629,
      "deceit": 6630,
      "development": 6631,
      "accumul": 6632,
      "indistinct": 6633,
      "individ": 6634,
      "indescribable": 6635,
      "protracted": 6636,
      "holiday": 6637,
      "counsellor": 6638,
      "contingencies": 6639,
      "misinterpreted": 6640,
      "fluctuations": 6641,
      "addresses": 6642,
      ".,\"": 6643,
      ":--\"": 6644,
      ";'--": 6645,
      "AD": 6646,
      "Apri": 6647,
      "Bought": 6648,
      "Ear": 6649,
      "Easter": 6650,
      "Four": 6651,
      "Hush": 6652,
      "Hann": 6653,
      "Long": 6654,
      "Latter": 6655,
      "Mon": 6656,
      "Ob": 6657,
      "Pe": 6658,
      "Rous": 6659,
      "Vicar": 6660,
      "Wa": 6661,
      "Wake": 6662,
      "XIV": 6663,
      "_C": 6664,
      "_the": 6665,
      "_He": 6666,
      "_tell": 6667,
      "_home": 6668,
      "_My": 6669,
      "_party": 6670,
      "_lady": 6671,
      "_secret": 6672,
      "_compassion": 6673,
      "_letting": 6674,
      "ator": 6675,
      "bang": 6676,
      "banity": 6677,
      "bowed": 6678,
      "cdo": 6679,
      "cart": 6680,
      "dy": 6681,
      "dit": 6682,
      "date": 6683,
      "dil": 6684,
      "dles": 6685,
      "dling": 6686,
      "eg": 6687,
      "epe": 6688,
      "eath": 6689,
      "fing": 6690,
      "hy": 6691,
      "ilo": 6692,
      "iating": 6693,
      "lame": 6694,
      "mant": 6695,
      "nnight": 6696,
      "pink": 6697,
      "praising": 6698,
      "rmu": 6699,
      "sli": 6700,
      "scept": 6701,
      "tse": 6702,
      "ug": 6703,
      "uity": 6704,
      "usted": 6705,
      "van": 6706,
      "vac": 6707,
      "vigor": 6708,
      "wall": 6709,
      "warted": 6710,
      "heed": 6711,
      "inev": 6712,
      "insp": 6713,
      "inced": 6714,
      "injustice": 6715,
      "inability": 6716,
      "inconstancy": 6717,
      "infamous": 6718,
      "inadequate": 6719,
      "refer": 6720,
      "reinst": 6721,
      "resc": 6722,
      "rers": 6723,
      "retreated": 6724,
      "hausted": 6725,
      "torily": 6726,
      "itim": 6727,
      "iterate": 6728,
      "asible": 6729,
      "atone": 6730,
      "orious": 6731,
      "arls": 6732,
      "lest": 6733,
      "lework": 6734,
      "stim": 6735,
      "stall": 6736,
      "stip": 6737,
      "thwarted": 6738,
      "severed": 6739,
      "verty": 6740,
      "chic": 6741,
      "notes": 6742,
      "utions": 6743,
      "defect": 6744,
      "deeper": 6745,
      "demerits": 6746,
      "detain": 6747,
      "detaining": 6748,
      "deepe": 6749,
      "shelt": 6750,
      "ceases": 6751,
      "forci": 6752,
      "forbid": 6753,
      "sung": 6754,
      "sucking": 6755,
      "entient": 6756,
      "wept": 6757,
      "allies": 6758,
      "mechan": 6759,
      "mare": 6760,
      "withdrawn": 6761,
      "irresol": 6762,
      "soph": 6763,
      "fectly": 6764,
      "feasible": 6765,
      "illeg": 6766,
      "illiterate": 6767,
      "murmu": 6768,
      "adapt": 6769,
      "ags": 6770,
      "confi": 6771,
      "concession": 6772,
      "pearls": 6773,
      "urged": 6774,
      "urgen": 6775,
      "uratively": 6776,
      "urbanity": 6777,
      "terri": 6778,
      "poet": 6779,
      "pock": 6780,
      "poiling": 6781,
      "poverty": 6782,
      "amb": 6783,
      "unable": 6784,
      "uncertain": 6785,
      "unheard": 6786,
      "unseen": 6787,
      "unanswer": 6788,
      "undecided": 6789,
      "undesirable": 6790,
      "undistinguishing": 6791,
      "unmerited": 6792,
      "unfastidious": 6793,
      "artif": 6794,
      "perman": 6795,
      "persevered": 6796,
      "loth": 6797,
      "lock": 6798,
      "exem": 6799,
      "exchange": 6800,
      "exhausted": 6801,
      "achers": 6802,
      "accord": 6803,
      "fraud": 6804,
      "ssip": 6805,
      "teachers": 6806,
      "premat": 6807,
      "prepossess": 6808,
      "prepossession": 6809,
      "predict": 6810,
      "icable": 6811,
      "icism": 6812,
      "icule": 6813,
      "prope": 6814,
      "prosing": 6815,
      "ittal": 6816,
      "apse": 6817,
      "urels": 6818,
      "dissol": 6819,
      "disput": 6820,
      "disgrace": 6821,
      "housekeeping": 6822,
      "usively": 6823,
      "elpiece": 6824,
      "evinced": 6825,
      "parts": 6826,
      "partly": 6827,
      "forestall": 6828,
      "timidity": 6829,
      "gold": 6830,
      "gossip": 6831,
      "airs": 6832,
      "aneous": 6833,
      "anecdo": 6834,
      "thoughtfully": 6835,
      "spark": 6836,
      "gram": 6837,
      "group": 6838,
      "justly": 6839,
      "justify": 6840,
      "fathers": 6841,
      "twisted": 6842,
      "suppress": 6843,
      "tremor": 6844,
      "trembled": 6845,
      "overlook": 6846,
      "overtaken": 6847,
      "overcharged": 6848,
      "doubly": 6849,
      "igator": 6850,
      "despoiling": 6851,
      "council": 6852,
      "giver": 6853,
      "contract": 6854,
      "stolen": 6855,
      "repul": 6856,
      "violent": 6857,
      "acquittal": 6858,
      "surrender": 6859,
      "clean": 6860,
      "cleared": 6861,
      "clemen": 6862,
      "clearest": 6863,
      "childhood": 6864,
      "merry": 6865,
      "Inn": 6866,
      "flourishing": 6867,
      "Perfectly": 6868,
      "institute": 6869,
      "instigator": 6870,
      "probabilities": 6871,
      "medium": 6872,
      "opens": 6873,
      "charges": 6874,
      "putrid": 6875,
      "circul": 6876,
      "respectability": 6877,
      "shortening": 6878,
      "regulate": 6879,
      "career": 6880,
      "aimed": 6881,
      "lets": 6882,
      "pleasantness": 6883,
      "ipped": 6884,
      "brotherly": 6885,
      "player": 6886,
      "playfully": 6887,
      "needs": 6888,
      "needed": 6889,
      "needlework": 6890,
      "purple": 6891,
      "viewed": 6892,
      "reticule": 6893,
      "attachments": 6894,
      "disappointing": 6895,
      "occasional": 6896,
      "listeners": 6897,
      "paternal": 6898,
      "objected": 6899,
      "singular": 6900,
      "intimates": 6901,
      "acceptance": 6902,
      "grandpapa": 6903,
      "riddles": 6904,
      "diver": 6905,
      "fastening": 6906,
      "introduces": 6907,
      "civilly": 6908,
      "Once": 6909,
      "rationally": 6910,
      "Absol": 6911,
      "eyeing": 6912,
      "inquired": 6913,
      "windy": 6914,
      "blinder": 6915,
      "phys": 6916,
      "philo": 6917,
      "repeat": 6918,
      "repeating": 6919,
      "borrow": 6920,
      "privately": 6921,
      "congratulatory": 6922,
      "snows": 6923,
      "Excell": 6924,
      "equipped": 6925,
      "encouragements": 6926,
      "built": 6927,
      "graces": 6928,
      "consented": 6929,
      "frightfully": 6930,
      "Offices": 6931,
      "curtse": 6932,
      "positive": 6933,
      "nicety": 6934,
      "unexam": 6935,
      "figuratively": 6936,
      "corrected": 6937,
      "sharer": 6938,
      "affording": 6939,
      "resisted": 6940,
      "practicable": 6941,
      "signified": 6942,
      "bench": 6943,
      "beneath": 6944,
      "injunction": 6945,
      "warrant": 6946,
      "moderation": 6947,
      "random": 6948,
      "rubber": 6949,
      "throwing": 6950,
      "submitting": 6951,
      "checking": 6952,
      "governed": 6953,
      "blameable": 6954,
      "lamented": 6955,
      "disgustingly": 6956,
      "fatigue": 6957,
      "indisposition": 6958,
      "exclusively": 6959,
      "guinea": 6960,
      "representations": 6961,
      "explains": 6962,
      "laborious": 6963,
      "authorised": 6964,
      "brightened": 6965,
      "nods": 6966,
      "embarrassing": 6967,
      "broader": 6968,
      "loudness": 6969,
      "arguments": 6970,
      "stoop": 6971,
      "ingenuity": 6972,
      "renewing": 6973,
      "hurts": 6974,
      "corresponded": 6975,
      "dissentient": 6976,
      "mildest": 6977,
      "nursed": 6978,
      "alteration": 6979,
      "repentance": 6980,
      "luxury": 6981,
      "flew": 6982,
      "satisfactorily": 6983,
      "learned": 6984,
      "meals": 6985,
      "flock": 6986,
      "imaginations": 6987,
      "imprudence": 6988,
      "defence": 6989,
      "projected": 6990,
      "coarseness": 6991,
      "dryly": 6992,
      "rousing": 6993,
      "recurrence": 6994,
      "joyously": 6995,
      "apprehended": 6996,
      "counsels": 6997,
      "bodies": 6998,
      "cousin": 6999,
      "bestow": 7000,
      "contradict": 7001,
      "knitting": 7002,
      "sharp": 7003,
      "privileged": 7004,
      "accompanying": 7005,
      "deliver": 7006,
      "demands": 7007,
      "shifted": 7008,
      "stormy": 7009,
      "engrossed": 7010,
      "ninety": 7011,
      "inherited": 7012,
      "bewitching": 7013,
      "literally": 7014,
      "dissipated": 7015,
      "elevate": 7016,
      "alphabets": 7017,
      "laurels": 7018,
      "mansion": 7019,
      "coughing": 7020,
      "worshipping": 7021,
      "similarity": 7022,
      "strikingly": 7023,
      "falsehoods": 7024,
      "Proportions": 7025,
      "purest": 7026,
      "Respect": 7027,
      "_Mrs_": 7028,
      "dexterously": 7029,
      "adoration": 7030,
      "appropriated": 7031,
      "magistrate": 7032,
      "portrait": 7033,
      "diffuses": 7034,
      "narrower": 7035,
      "See": 7036,
      "shadow": 7037,
      "villain": 7038,
      "inexpressibly": 7039,
      "release": 7040,
      "enquired": 7041,
      "dispelled": 7042,
      "foreboded": 7043,
      "obtrude": 7044,
      "clerk": 7045,
      "attractive": 7046,
      "umbrella": 7047,
      "misconception": 7048,
      "purchasing": 7049,
      "dialogue": 7050,
      "complaisance": 7051,
      "innocently": 7052,
      "forfeit": 7053,
      "harshly": 7054,
      "puppy": 7055,
      "April": 7056,
      "Early": 7057,
      "Hannah": 7058,
      "Latterly": 7059,
      "Monday": 7060,
      "Observe": 7061,
      "Rousing": 7062,
      "Wakefield": 7063,
      "_the_": 7064,
      "_He_": 7065,
      "_tell_": 7066,
      "_home_": 7067,
      "_My_": 7068,
      "_party_": 7069,
      "_lady_": 7070,
      "_secret_": 7071,
      "_compassion_": 7072,
      "_letting_": 7073,
      "bangs": 7074,
      "ditch": 7075,
      "dilatory": 7076,
      "finger": 7077,
      "mantelpiece": 7078,
      "slice": 7079,
      "scepticism": 7080,
      "vigorously": 7081,
      "heedlessness": 7082,
      "reinstate": 7083,
      "rescue": 7084,
      "itimacy": 7085,
      "atonement": 7086,
      "chicken": 7087,
      "defects": 7088,
      "deepest": 7089,
      "sheltered": 7090,
      "forcibly": 7091,
      "mechanically": 7092,
      "irresolute": 7093,
      "sophic": 7094,
      "illegitimacy": 7095,
      "confide": 7096,
      "urgency": 7097,
      "pocket": 7098,
      "unanswerable": 7099,
      "artifice": 7100,
      "exemption": 7101,
      "premature": 7102,
      "prepossessing": 7103,
      "dissolved": 7104,
      "disputing": 7105,
      "anecdote": 7106,
      "sparkling": 7107,
      "clemency": 7108,
      "circulate": 7109,
      "philosophic": 7110,
      "curtseys": 7111,
      "Ac": 7112,
      "Aston": 7113,
      "Birth": 7114,
      "Cand": 7115,
      "Car": 7116,
      "Cob": 7117,
      "Caut": 7118,
      "Dising": 7119,
      "Find": 7120,
      "Full": 7121,
      "Garri": 7122,
      "Hy": 7123,
      "Hum": 7124,
      "Hither": 7125,
      "Hug": 7126,
      "Imag": 7127,
      "Kings": 7128,
      "Lat": 7129,
      "Low": 7130,
      "Late": 7131,
      "Lang": 7132,
      "Liable": 7133,
      "Mat": 7134,
      "Mor": 7135,
      "Mic": 7136,
      "None": 7137,
      "Pi": 7138,
      "Playing": 7139,
      "Rece": 7140,
      "Sho": 7141,
      "Stop": 7142,
      "Tup": 7143,
      "_of": 7144,
      "_have": 7145,
      "_were": 7146,
      "_own": 7147,
      "_when": 7148,
      "_We": 7149,
      "_then": 7150,
      "_gentleman": 7151,
      "_promise": 7152,
      "_court": 7153,
      "_sensation": 7154,
      "_Dixons": 7155,
      "aj": 7156,
      "aper": 7157,
      "avour": 7158,
      "bul": 7159,
      "bran": 7160,
      "bjection": 7161,
      "bons": 7162,
      "bends": 7163,
      "cas": 7164,
      "cof": 7165,
      "cant": 7166,
      "cary": 7167,
      "cided": 7168,
      "cution": 7169,
      "crosses": 7170,
      "dies": 7171,
      "dimens": 7172,
      "flight": 7173,
      "fres": 7174,
      "fles": 7175,
      "gs": 7176,
      "gru": 7177,
      "hid": 7178,
      "ived": 7179,
      "jok": 7180,
      "ky": 7181,
      "kne": 7182,
      "kiss": 7183,
      "kite": 7184,
      "kni": 7185,
      "mirth": 7186,
      "nought": 7187,
      "oke": 7188,
      "oath": 7189,
      "pou": 7190,
      "por": 7191,
      "rar": 7192,
      "ratives": 7193,
      "square": 7194,
      "tha": 7195,
      "tons": 7196,
      "tically": 7197,
      "taneous": 7198,
      "ushe": 7199,
      "uation": 7200,
      "wan": 7201,
      "zy": 7202,
      "incon": 7203,
      "incons": 7204,
      "inently": 7205,
      "indoors": 7206,
      "incommod": 7207,
      "incapable": 7208,
      "insensibility": 7209,
      "inexcusable": 7210,
      "inadmiss": 7211,
      "recei": 7212,
      "rejection": 7213,
      "retor": 7214,
      "repressed": 7215,
      "rejoined": 7216,
      "thecary": 7217,
      "onist": 7218,
      "onial": 7219,
      "ontaneous": 7220,
      "errs": 7221,
      "hael": 7222,
      "itious": 7223,
      "iters": 7224,
      "enab": 7225,
      "envi": 7226,
      "ensued": 7227,
      "enuousness": 7228,
      "asunder": 7229,
      "atmo": 7230,
      "atus": 7231,
      "ariable": 7232,
      "arises": 7233,
      "leather": 7234,
      "levity": 7235,
      "stain": 7236,
      "stances": 7237,
      "stake": 7238,
      "omission": 7239,
      "verses": 7240,
      "immen": 7241,
      "imposing": 7242,
      "implanted": 7243,
      "improving": 7244,
      "improves": 7245,
      "decease": 7246,
      "deceptions": 7247,
      "depreciating": 7248,
      "alluding": 7249,
      "main": 7250,
      "irons": 7251,
      "ido": 7252,
      "oddest": 7253,
      "feeding": 7254,
      "butler": 7255,
      "buttons": 7256,
      "abused": 7257,
      "abol": 7258,
      "ading": 7259,
      "agonist": 7260,
      "conju": 7261,
      "peep": 7262,
      "urity": 7263,
      "robe": 7264,
      "saun": 7265,
      "tering": 7266,
      "popl": 7267,
      "amoun": 7268,
      "doci": 7269,
      "unkind": 7270,
      "unsettled": 7271,
      "unconvinced": 7272,
      "unluck": 7273,
      "unfriendly": 7274,
      "unprepared": 7275,
      "unnecessarily": 7276,
      "unmixed": 7277,
      "unsull": 7278,
      "permission": 7279,
      "faire": 7280,
      "endanger": 7281,
      "ltry": 7282,
      "shy": 7283,
      "shine": 7284,
      "acco": 7285,
      "frown": 7286,
      "pleading": 7287,
      "antagonist": 7288,
      "mustered": 7289,
      "rape": 7290,
      "process": 7291,
      "owning": 7292,
      "apes": 7293,
      "appar": 7294,
      "disinclined": 7295,
      "pled": 7296,
      "plague": 7297,
      "upstart": 7298,
      "foretold": 7299,
      "forerun": 7300,
      "timid": 7301,
      "goings": 7302,
      "obsc": 7303,
      "obtaining": 7304,
      "deriving": 7305,
      "derived": 7306,
      "fried": 7307,
      "fricas": 7308,
      "medley": 7309,
      "rush": 7310,
      "astray": 7311,
      "spinet": 7312,
      "spaper": 7313,
      "spontaneous": 7314,
      "pty": 7315,
      "intend": 7316,
      "readiness": 7317,
      "undergo": 7318,
      "ners": 7319,
      "indecision": 7320,
      "dearly": 7321,
      "prison": 7322,
      "akes": 7323,
      "harp": 7324,
      "harmon": 7325,
      "boiling": 7326,
      "bots": 7327,
      "suppressed": 7328,
      "treble": 7329,
      "newspaper": 7330,
      "tty": 7331,
      "offic": 7332,
      "stands": 7333,
      "appeased": 7334,
      "subside": 7335,
      "desk": 7336,
      "creation": 7337,
      "create": 7338,
      "presents": 7339,
      "blunt": 7340,
      "guide": 7341,
      "guile": 7342,
      "enger": 7343,
      "lasts": 7344,
      "misapply": 7345,
      "tempor": 7346,
      "sorts": 7347,
      "acquitted": 7348,
      "genial": 7349,
      "matched": 7350,
      "awoke": 7351,
      "isting": 7352,
      "lication": 7353,
      "merchant": 7354,
      "mercant": 7355,
      "Instances": 7356,
      "believes": 7357,
      "flavour": 7358,
      "flakes": 7359,
      "personally": 7360,
      "hearty": 7361,
      "amply": 7362,
      "elsewhere": 7363,
      "worlds": 7364,
      "superintend": 7365,
      "putable": 7366,
      "refusing": 7367,
      "respectful": 7368,
      "suffere": 7369,
      "spoilt": 7370,
      "shorten": 7371,
      "invariable": 7372,
      "gratification": 7373,
      "reasonings": 7374,
      "regulated": 7375,
      "carelessness": 7376,
      "decent": 7377,
      "answers": 7378,
      "empty": 7379,
      "aimable": 7380,
      "scrape": 7381,
      "scapes": 7382,
      "pieces": 7383,
      "equality": 7384,
      "concert": 7385,
      "trifles": 7386,
      "ibility": 7387,
      "relent": 7388,
      "denot": 7389,
      "waits": 7390,
      "wavering": 7391,
      "oline": 7392,
      "legal": 7393,
      "finale": 7394,
      "worthies": 7395,
      "planned": 7396,
      "suspiciously": 7397,
      "services": 7398,
      "swept": 7399,
      "istency": 7400,
      "incline": 7401,
      "dancers": 7402,
      "listener": 7403,
      "elegancies": 7404,
      "welcoming": 7405,
      "consciously": 7406,
      "plainest": 7407,
      "trades": 7408,
      "misspent": 7409,
      "diet": 7410,
      "forgets": 7411,
      "produces": 7412,
      "employing": 7413,
      "secondary": 7414,
      "undaunted": 7415,
      "conducting": 7416,
      "breaks": 7417,
      "smilingly": 7418,
      "Abbots": 7419,
      "hinting": 7420,
      "companionably": 7421,
      "landscapes": 7422,
      "troubles": 7423,
      "humours": 7424,
      "amuses": 7425,
      "belongs": 7426,
      "quarters": 7427,
      "sends": 7428,
      "wretch": 7429,
      "remarks": 7430,
      "ifications": 7431,
      "congratulation": 7432,
      "recovery": 7433,
      "previously": 7434,
      "scarlet": 7435,
      "creditable": 7436,
      "controul": 7437,
      "eatable": 7438,
      "Exquisite": 7439,
      "equalled": 7440,
      "opportune": 7441,
      "wretchedly": 7442,
      "buy": 7443,
      "total": 7444,
      "apothecary": 7445,
      "pictures": 7446,
      "bargain": 7447,
      "currant": 7448,
      "successively": 7449,
      "sentimentally": 7450,
      "peculiarities": 7451,
      "movement": 7452,
      "gradations": 7453,
      "strike": 7454,
      "objectionable": 7455,
      "interruption": 7456,
      "accrue": 7457,
      "supplication": 7458,
      "bursts": 7459,
      "courtship": 7460,
      "messenger": 7461,
      "examined": 7462,
      "flatteries": 7463,
      "employments": 7464,
      "Chili": 7465,
      "featured": 7466,
      "posture": 7467,
      "warfare": 7468,
      "pitifull": 7469,
      "syllables": 7470,
      "chatty": 7471,
      "suggesting": 7472,
      "lengthened": 7473,
      "restoratives": 7474,
      "assuring": 7475,
      "devoting": 7476,
      "receives": 7477,
      "consoling": 7478,
      "indiscre": 7479,
      "deservedly": 7480,
      "transplanted": 7481,
      "garters": 7482,
      "limitations": 7483,
      "rimination": 7484,
      "rimony": 7485,
      "seize": 7486,
      "escaping": 7487,
      "startled": 7488,
      "indignant": 7489,
      "counteract": 7490,
      "sensibilities": 7491,
      "dignities": 7492,
      "fetching": 7493,
      "accommodate": 7494,
      "discrimination": 7495,
      "Although": 7496,
      "nodded": 7497,
      "weakly": 7498,
      "politician": 7499,
      "drops": 7500,
      "fancies": 7501,
      "composedly": 7502,
      "resulting": 7503,
      "Composure": 7504,
      "Command": 7505,
      "basins": 7506,
      "hasten": 7507,
      "pronouns": 7508,
      "driven": 7509,
      "gaiters": 7510,
      "ivation": 7511,
      "draughts": 7512,
      "Between": 7513,
      "nurse": 7514,
      "acquiesced": 7515,
      "horrors": 7516,
      "songs": 7517,
      "expedient": 7518,
      "expeditious": 7519,
      "henceforward": 7520,
      "conveniently": 7521,
      "advisable": 7522,
      "classed": 7523,
      "attacked": 7524,
      "irresistibly": 7525,
      "matrimonial": 7526,
      "glowing": 7527,
      "colouring": 7528,
      "vocally": 7529,
      "Deceived": 7530,
      "Decided": 7531,
      "seasonable": 7532,
      "fills": 7533,
      "freeze": 7534,
      "refrained": 7535,
      "destroyed": 7536,
      "frost": 7537,
      "folded": 7538,
      "rumour": 7539,
      "coarser": 7540,
      "submissively": 7541,
      "bitterness": 7542,
      "vouchsaf": 7543,
      "Stay": 7544,
      "cherries": 7545,
      "yielded": 7546,
      "heroism": 7547,
      "perpetually": 7548,
      "furnished": 7549,
      "devil": 7550,
      "deafness": 7551,
      "ribbons": 7552,
      "ridicule": 7553,
      "tranquillised": 7554,
      "cultivation": 7555,
      "pursuits": 7556,
      "benefited": 7557,
      "knit": 7558,
      "infli": 7559,
      "copy": 7560,
      "flying": 7561,
      "impertinently": 7562,
      "unpardonably": 7563,
      "persisting": 7564,
      "fidgetiness": 7565,
      "reviving": 7566,
      "modestly": 7567,
      "artlessly": 7568,
      "ninth": 7569,
      "narration": 7570,
      "inherits": 7571,
      "prejudiced": 7572,
      "adventure": 7573,
      "adventuring": 7574,
      "fancifulness": 7575,
      "Fortune": 7576,
      "stretch": 7577,
      "chambers": 7578,
      "briefly": 7579,
      "lazy": 7580,
      "environs": 7581,
      "sports": 7582,
      "moralised": 7583,
      "mourning": 7584,
      "affable": 7585,
      "denoted": 7586,
      "inconveniently": 7587,
      "condescending": 7588,
      "Proof": 7589,
      "conferring": 7590,
      "hautboy": 7591,
      "hautboys": 7592,
      "saffron": 7593,
      "amidst": 7594,
      "prophecies": 7595,
      "prophetically": 7596,
      "Woman": 7597,
      "chapters": 7598,
      "abhorred": 7599,
      "stomacher": 7600,
      "puddle": 7601,
      "courtesy": 7602,
      "magnified": 7603,
      "alleviations": 7604,
      "dashed": 7605,
      "panic": 7606,
      "unobjection": 7607,
      "injurious": 7608,
      "beaufet": 7609,
      "irksomeness": 7610,
      "unfeignedly": 7611,
      "prevalent": 7612,
      "dispensing": 7613,
      "plantation": 7614,
      "tenderest": 7615,
      "harboured": 7616,
      "unequivocally": 7617,
      "minority": 7618,
      "freaks": 7619,
      "Fortunately": 7620,
      "bias": 7621,
      "grossly": 7622,
      "ponds": 7623,
      "sneering": 7624,
      "bearers": 7625,
      "western": 7626,
      "execution": 7627,
      "confinement": 7628,
      "palpably": 7629,
      "Pretty": 7630,
      "Supposing": 7631,
      "bounded": 7632,
      "shelter": 7633,
      "doomed": 7634,
      "coloured": 7635,
      "flowers": 7636,
      "sympathiser": 7637,
      "transgressed": 7638,
      "permanently": 7639,
      "properest": 7640,
      "diverted": 7641,
      "borrowed": 7642,
      "clerks": 7643,
      "Acquit": 7644,
      "Astonished": 7645,
      "Candles": 7646,
      "Caroline": 7647,
      "Cobham": 7648,
      "Cautious": 7649,
      "Disingenuousness": 7650,
      "Garrick": 7651,
      "Hymen": 7652,
      "Hitherto": 7653,
      "Hughes": 7654,
      "Imagine": 7655,
      "Later": 7656,
      "Langham": 7657,
      "Matrimony": 7658,
      "Morning": 7659,
      "Michael": 7660,
      "Receive": 7661,
      "Shocking": 7662,
      "_of_": 7663,
      "_have_": 7664,
      "_were_": 7665,
      "_own_": 7666,
      "_when_": 7667,
      "_We_": 7668,
      "_then_": 7669,
      "_gentleman_": 7670,
      "_promise_": 7671,
      "_sensation_": 7672,
      "_Dixons_": 7673,
      "ajar": 7674,
      "bulky": 7675,
      "branch": 7676,
      "coffee": 7677,
      "dimensions": 7678,
      "fresco": 7679,
      "jokes": 7680,
      "knee": 7681,
      "kissed": 7682,
      "knife": 7683,
      "poultry": 7684,
      "rarity": 7685,
      "thaw": 7686,
      "ushered": 7687,
      "incongru": 7688,
      "inconsistency": 7689,
      "inadmissibility": 7690,
      "receipt": 7691,
      "retort": 7692,
      "enabled": 7693,
      "atmosphere": 7694,
      "immense": 7695,
      "abolition": 7696,
      "conjugal": 7697,
      "peeped": 7698,
      "sauntering": 7699,
      "poplin": 7700,
      "docile": 7701,
      "unluckily": 7702,
      "unsullied": 7703,
      "fairest": 7704,
      "accosted": 7705,
      "apparatus": 7706,
      "forerunner": 7707,
      "obscurity": 7708,
      "fricassee": 7709,
      "prisoner": 7710,
      "guileless": 7711,
      "temporary": 7712,
      "mercantile": 7713,
      "sufferers": 7714,
      "denotes": 7715,
      "tradesman": 7716,
      "currants": 7717,
      "pitifullest": 7718,
      "Decidedly": 7719,
      "unobjectionable": 7720,
      "Michaelmas": 7721,
      "\"'": 7722,
      "';": 7723,
      "Brown": 7724,
      "Call": 7725,
      "Cir": 7726,
      "Day": 7727,
      "Dread": 7728,
      "Dining": 7729,
      "Dirty": 7730,
      "Fo": 7731,
      "Five": 7732,
      "Fines": 7733,
      "Gre": 7734,
      "Gen": 7735,
      "Gone": 7736,
      "Gold": 7737,
      "Great": 7738,
      "Hence": 7739,
      "Ind": 7740,
      "Like": 7741,
      "Mer": 7742,
      "March": 7743,
      "Nat": 7744,
      "Name": 7745,
      "New": 7746,
      "Ox": 7747,
      "Ost": 7748,
      "Oft": 7749,
      "Rom": 7750,
      "Rather": 7751,
      "Sa": 7752,
      "Seven": 7753,
      "Tan": 7754,
      "Talk": 7755,
      "Tru": 7756,
      "VI": 7757,
      "Vo": 7758,
      "Wed": 7759,
      "Warm": 7760,
      "Wick": 7761,
      "Wilt": 7762,
      "_a": 7763,
      "_it": 7764,
      "_and": 7765,
      "_be": 7766,
      "_at": 7767,
      "_been": 7768,
      "_well": 7769,
      "_ten": 7770,
      "_shall": 7771,
      "_wish": 7772,
      "_felt": 7773,
      "_both": 7774,
      "_each": 7775,
      "_engagement": 7776,
      "_alone": 7777,
      "_misery": 7778,
      "_addition": 7779,
      "_introduction": 7780,
      "_eighteen": 7781,
      "_source": 7782,
      "_appropri": 7783,
      "_amor": 7784,
      "_patri": 7785,
      "_repentance": 7786,
      "_dissolved": 7787,
      "ae": 7788,
      "aus": 7789,
      "aired": 7790,
      "avers": 7791,
      "cray": 7792,
      "corted": 7793,
      "dur": 7794,
      "dic": 7795,
      "dure": 7796,
      "dup": 7797,
      "dings": 7798,
      "dash": 7799,
      "dying": 7800,
      "ej": 7801,
      "ere": 7802,
      "ese": 7803,
      "eigh": 7804,
      "fish": 7805,
      "flies": 7806,
      "gang": 7807,
      "grud": 7808,
      "hinde": 7809,
      "hunting": 7810,
      "ien": 7811,
      "ilton": 7812,
      "ieties": 7813,
      "lis": 7814,
      "limes": 7815,
      "lacing": 7816,
      "lapse": 7817,
      "mple": 7818,
      "nation": 7819,
      "oted": 7820,
      "ogra": 7821,
      "pher": 7822,
      "pion": 7823,
      "pir": 7824,
      "pill": 7825,
      "pare": 7826,
      "pic": 7827,
      "page": 7828,
      "pices": 7829,
      "riment": 7830,
      "rating": 7831,
      "rates": 7832,
      "sar": 7833,
      "sch": 7834,
      "sash": 7835,
      "tes": 7836,
      "tied": 7837,
      "uable": 7838,
      "vice": 7839,
      "vicar": 7840,
      "win": 7841,
      "wrapt": 7842,
      "heire": 7843,
      "inn": 7844,
      "inspect": 7845,
      "insuper": 7846,
      "infancy": 7847,
      "insult": 7848,
      "insepar": 7849,
      "insufficient": 7850,
      "inconsiderable": 7851,
      "insensib": 7852,
      "incomprehens": 7853,
      "reve": 7854,
      "recalled": 7855,
      "respite": 7856,
      "record": 7857,
      "repressing": 7858,
      "reanimation": 7859,
      "revive": 7860,
      "reigning": 7861,
      "replacing": 7862,
      "ouched": 7863,
      "oudest": 7864,
      "onne": 7865,
      "tomed": 7866,
      "token": 7867,
      "ites": 7868,
      "itating": 7869,
      "isen": 7870,
      "issu": 7871,
      "isition": 7872,
      "isfied": 7873,
      "assa": 7874,
      "asper": 7875,
      "inging": 7876,
      "andum": 7877,
      "beet": 7878,
      "llation": 7879,
      "aries": 7880,
      "arisen": 7881,
      "lect": 7882,
      "league": 7883,
      "sting": 7884,
      "stro": 7885,
      "stare": 7886,
      "stic": 7887,
      "thri": 7888,
      "thrive": 7889,
      "seers": 7890,
      "seaside": 7891,
      "select": 7892,
      "--.": 7893,
      "--.'": 7894,
      "omit": 7895,
      "verified": 7896,
      "verdure": 7897,
      "veils": 7898,
      "hatically": 7899,
      "chim": 7900,
      "washed": 7901,
      "wasted": 7902,
      "espal": 7903,
      "escorted": 7904,
      "espion": 7905,
      "imen": 7906,
      "immaterial": 7907,
      "impassable": 7908,
      "depos": 7909,
      "depri": 7910,
      "detest": 7911,
      "departed": 7912,
      "shes": 7913,
      "sheet": 7914,
      "shepher": 7915,
      "ford": 7916,
      "forwards": 7917,
      "rival": 7918,
      "ricted": 7919,
      "rigue": 7920,
      "entment": 7921,
      "entree": 7922,
      "entang": 7923,
      "entimes": 7924,
      "alis": 7925,
      "merest": 7926,
      "males": 7927,
      "iron": 7928,
      "idleness": 7929,
      "ctive": 7930,
      "odore": 7931,
      "lie": 7932,
      "liqu": 7933,
      "liance": 7934,
      "liating": 7935,
      "feigning": 7936,
      "females": 7937,
      "mud": 7938,
      "bute": 7939,
      "etc": 7940,
      "etly": 7941,
      "absor": 7942,
      "compr": 7943,
      "composition": 7944,
      "adings": 7945,
      "aggrand": 7946,
      "aggress": 7947,
      "aghast": 7948,
      "agitate": 7949,
      "confound": 7950,
      "urgent": 7951,
      "rooted": 7952,
      "rostic": 7953,
      "sauc": 7954,
      "sample": 7955,
      "quet": 7956,
      "term": 7957,
      "pocris": 7958,
      "ampers": 7959,
      "unquestion": 7960,
      "unsentiment": 7961,
      "unreserved": 7962,
      "unperceived": 7963,
      "ungraciously": 7964,
      "ungenerous": 7965,
      "unprovided": 7966,
      "undiscerned": 7967,
      "unimped": 7968,
      "unsteadiness": 7969,
      "unceremonious": 7970,
      "anything": 7971,
      "oneself": 7972,
      "pervert": 7973,
      "logue": 7974,
      "ation_": 7975,
      "failing": 7976,
      "experi": 7977,
      "exchanged": 7978,
      "ifferent": 7979,
      "Theodore": 7980,
      "aculation": 7981,
      "acrostic": 7982,
      "willingly": 7983,
      "predi": 7984,
      "preconceived": 7985,
      "predic": 7986,
      "raved": 7987,
      "prolonged": 7988,
      "proclaimed": 7989,
      "prohib": 7990,
      "provocation": 7991,
      "prologue": 7992,
      "seeking": 7993,
      "thereabouts": 7994,
      "mane": 7995,
      "menting": 7996,
      "dismay": 7997,
      "dispose": 7998,
      "disgu": 7999,
      "disposit": 8000,
      "disliked": 8001,
      "displaying": 8002,
      "pliment": 8003,
      "geogra": 8004,
      "foreseeing": 8005,
      "foretelling": 8006,
      "!--\"": 8007,
      "timber": 8008,
      "fires": 8009,
      "affix": 8010,
      "affixed": 8011,
      "rules": 8012,
      "cakes": 8013,
      "hows": 8014,
      "ctions": 8015,
      "likeliest": 8016,
      "covering": 8017,
      "covert": 8018,
      "renoun": 8019,
      "intrigue": 8020,
      "useable": 8021,
      "useless": 8022,
      "unders": 8023,
      "clamor": 8024,
      "clinging": 8025,
      "assorted": 8026,
      "attle": 8027,
      "proudest": 8028,
      "aking": 8029,
      "wardens": 8030,
      "supposition": 8031,
      "umber": 8032,
      "restricted": 8033,
      "tremble": 8034,
      "overcoming": 8035,
      "overboard": 8036,
      "overseers": 8037,
      "lighted": 8038,
      "standard": 8039,
      "visibly": 8040,
      "appellation": 8041,
      "subordin": 8042,
      "sublime": 8043,
      "doubtfully": 8044,
      "commended": 8045,
      "solidity": 8046,
      "satin": 8047,
      "brunt": 8048,
      "ully": 8049,
      "compliance": 8050,
      "cheese": 8051,
      "bling": 8052,
      "handle": 8053,
      "viving": 8054,
      "violence": 8055,
      "engrosses": 8056,
      "misled": 8057,
      "volu": 8058,
      "hourly": 8059,
      "matical": 8060,
      "Mystery": 8061,
      "istic": 8062,
      "survive": 8063,
      "surviving": 8064,
      "particularity": 8065,
      "wheres": 8066,
      "imagines": 8067,
      "imagining": 8068,
      "paradings": 8069,
      "merriment": 8070,
      "imply": 8071,
      "ficing": 8072,
      "instances": 8073,
      "finds": 8074,
      "mediately": 8075,
      "admin": 8076,
      "admits": 8077,
      "admission": 8078,
      "charmed": 8079,
      "superadded": 8080,
      "motherly": 8081,
      "spoil": 8082,
      "untouched": 8083,
      "ladylike": 8084,
      "gratify": 8085,
      "regiment": 8086,
      "caresses": 8087,
      "situated": 8088,
      "scorn": 8089,
      "autiful": 8090,
      "surprizes": 8091,
      "values": 8092,
      "rows": 8093,
      "cumstances": 8094,
      "interchange": 8095,
      "interfered": 8096,
      "intermission": 8097,
      "piquet": 8098,
      "favourably": 8099,
      "collation": 8100,
      "tribute": 8101,
      "tempting": 8102,
      "changeable": 8103,
      "bears": 8104,
      "insight": 8105,
      "relation": 8106,
      "headaches": 8107,
      "olar": 8108,
      "weekly": 8109,
      "clothing": 8110,
      "characteristic": 8111,
      "requiring": 8112,
      "requisition": 8113,
      "depending": 8114,
      "musician": 8115,
      "conversations": 8116,
      "regards": 8117,
      "realised": 8118,
      "cellery": 8119,
      "Forcing": 8120,
      "decline": 8121,
      "encourager": 8122,
      "approver": 8123,
      "bandied": 8124,
      "trampers": 8125,
      "quieter": 8126,
      "fixing": 8127,
      "grandpapas": 8128,
      "ridden": 8129,
      "livelihood": 8130,
      "consequent": 8131,
      "market": 8132,
      "caps": 8133,
      "capri": 8134,
      "capacity": 8135,
      "productive": 8136,
      "fourteen": 8137,
      "risking": 8138,
      "secondly": 8139,
      "fasten": 8140,
      "occurrences": 8141,
      "fluently": 8142,
      "flushed": 8143,
      "mortify": 8144,
      "undue": 8145,
      "profitable": 8146,
      "wisely": 8147,
      "eventually": 8148,
      "motto": 8149,
      "confiding": 8150,
      "passionately": 8151,
      "vainly": 8152,
      "suitableness": 8153,
      "commanded": 8154,
      "regularity": 8155,
      "phy": 8156,
      "Beavers": 8157,
      "Beautiful": 8158,
      "deedily": 8159,
      "bordering": 8160,
      "couplet": 8161,
      "ificent": 8162,
      "weddings": 8163,
      "glass": 8164,
      "tormenting": 8165,
      "observant": 8166,
      "observable": 8167,
      "collections": 8168,
      "separating": 8169,
      "Extract": 8170,
      "desirous": 8171,
      "desirableness": 8172,
      "evidence": 8173,
      "softer": 8174,
      "preferable": 8175,
      "opportunities": 8176,
      "frighten": 8177,
      "province": 8178,
      "usefulness": 8179,
      "Often": 8180,
      "comparing": 8181,
      "dreaming": 8182,
      "remaining": 8183,
      "palpit": 8184,
      "blocked": 8185,
      "resisting": 8186,
      "shedding": 8187,
      "signed": 8188,
      "reproaches": 8189,
      "nonsenses": 8190,
      "stream": 8191,
      "comparisons": 8192,
      "partners": 8193,
      "pitch": 8194,
      "throws": 8195,
      "memorandum": 8196,
      "arranging": 8197,
      "vexations": 8198,
      "vexatious": 8199,
      "establish": 8200,
      "travelled": 8201,
      "languid": 8202,
      "sacrificing": 8203,
      "disgusted": 8204,
      "promptitude": 8205,
      "suggestion": 8206,
      "protested": 8207,
      "footsteps": 8208,
      "devote": 8209,
      "avenue": 8210,
      "avenues": 8211,
      "exclude": 8212,
      "originally": 8213,
      "originating": 8214,
      "Must": 8215,
      "sleek": 8216,
      "deathbed": 8217,
      "perplexed": 8218,
      "wool": 8219,
      "populous": 8220,
      "indignantly": 8221,
      "Almane": 8222,
      "Satisfied": 8223,
      "hazards": 8224,
      "weaker": 8225,
      "thinner": 8226,
      "constituted": 8227,
      "extended": 8228,
      "enemy": 8229,
      "Bragges": 8230,
      "Compare": 8231,
      "Comtes": 8232,
      "Compliment": 8233,
      "hastening": 8234,
      "drifted": 8235,
      "eligi": 8236,
      "gaieties": 8237,
      "ivated": 8238,
      "gainer": 8239,
      "prosings": 8240,
      "triumphantly": 8241,
      "divined": 8242,
      "___": 8243,
      "slumber": 8244,
      "tires": 8245,
      "adored": 8246,
      "blushes": 8247,
      "stirred": 8248,
      "advising": 8249,
      "substitute": 8250,
      "bids": 8251,
      "further": 8252,
      "crowded": 8253,
      "parentage": 8254,
      "stupidity": 8255,
      "unexpectedly": 8256,
      "criticism": 8257,
      "churchwardens": 8258,
      "floated": 8259,
      "threaten": 8260,
      "jumble": 8261,
      "invaluable": 8262,
      "unexceptionably": 8263,
      "shrubberies": 8264,
      "Immediately": 8265,
      "slyness": 8266,
      "defined": 8267,
      "defended": 8268,
      "defying": 8269,
      "conciliating": 8270,
      "courageous": 8271,
      "puzzle": 8272,
      "puzzling": 8273,
      "argumentative": 8274,
      "Stilton": 8275,
      "dryness": 8276,
      "eleven": 8277,
      "sweeping": 8278,
      "affords": 8279,
      "deafer": 8280,
      "decorated": 8281,
      "hospitable": 8282,
      "residing": 8283,
      "blooming": 8284,
      "damps": 8285,
      "knives": 8286,
      "stationing": 8287,
      "entitling": 8288,
      "roasted": 8289,
      "guarded": 8290,
      "restraints": 8291,
      "detailed": 8292,
      "fidgeting": 8293,
      "widower": 8294,
      "demanding": 8295,
      "outwardly": 8296,
      "grievances": 8297,
      "vagaries": 8298,
      "universal": 8299,
      "adventurous": 8300,
      "dictate": 8301,
      "dictated": 8302,
      "castic": 8303,
      "pangs": 8304,
      "deficien": 8305,
      "specimen": 8306,
      "treasuring": 8307,
      "summoned": 8308,
      "literature": 8309,
      "dissipation": 8310,
      "weighing": 8311,
      "attribute": 8312,
      "silversmith": 8313,
      "contributed": 8314,
      "contribution": 8315,
      "infantry": 8316,
      "confers": 8317,
      "sharks": 8318,
      "Resentment": 8319,
      "glory": 8320,
      "glorious": 8321,
      "dexterity": 8322,
      "performers": 8323,
      "pressure": 8324,
      "varieties": 8325,
      "magistrates": 8326,
      "Women": 8327,
      "chapter": 8328,
      "daring": 8329,
      "daringly": 8330,
      "precedent": 8331,
      "stomach": 8332,
      "admissible": 8333,
      "pudding": 8334,
      "courtesies": 8335,
      "magnificent": 8336,
      "alleviation": 8337,
      "Madame": 8338,
      "faints": 8339,
      "soothe": 8340,
      "captious": 8341,
      "captivated": 8342,
      "_______": 8343,
      "Baronne": 8344,
      "brace": 8345,
      "malt": 8346,
      "nesday": 8347,
      "rambling": 8348,
      "inspiration": 8349,
      "exteriors": 8350,
      "oppressive": 8351,
      "wilfully": 8352,
      "contrivances": 8353,
      "candidates": 8354,
      "Business": 8355,
      "Grandmama": 8356,
      "glee": 8357,
      "lodged": 8358,
      "smells": 8359,
      "reminding": 8360,
      "ingratitude": 8361,
      "leaning": 8362,
      "stagnation": 8363,
      "conquered": 8364,
      "constrained": 8365,
      "pretensions": 8366,
      "flatterer": 8367,
      "emphatically": 8368,
      "insinuate": 8369,
      "confidantes": 8370,
      "accustomed": 8371,
      "accumulations": 8372,
      "individual": 8373,
      "hypocris": 8374,
      "grammatical": 8375,
      "repulsed": 8376,
      "singularly": 8377,
      "Absolutely": 8378,
      "physic": 8379,
      "harmony": 8380,
      "indiscreetly": 8381,
      "Circumstances": 8382,
      "Dreadful": 8383,
      "Forest": 8384,
      "Finesse": 8385,
      "Green": 8386,
      "Genlis": 8387,
      "Goldsmith": 8388,
      "Henceforward": 8389,
      "Indifferent": 8390,
      "Mermaids": 8391,
      "Natural": 8392,
      "News": 8393,
      "Oxford": 8394,
      "Ostalis": 8395,
      "Oftentimes": 8396,
      "Romance": 8397,
      "Saunders": 8398,
      "Talking": 8399,
      "Trust": 8400,
      "Voices": 8401,
      "Wednesday": 8402,
      "Warmth": 8403,
      "Wickedness": 8404,
      "Wiltshire": 8405,
      "_a_": 8406,
      "_it_": 8407,
      "_and_": 8408,
      "_be_": 8409,
      "_at_": 8410,
      "_been_": 8411,
      "_well_": 8412,
      "_ten_": 8413,
      "_shall_": 8414,
      "_wish_": 8415,
      "_felt_": 8416,
      "_both_": 8417,
      "_each_": 8418,
      "_engagement_": 8419,
      "_alone_": 8420,
      "_misery_": 8421,
      "_addition_": 8422,
      "_introduction_": 8423,
      "_eighteen_": 8424,
      "_source_": 8425,
      "_appropriation_": 8426,
      "_amor_": 8427,
      "_patriae": 8428,
      "_repentance_": 8429,
      "_dissolved_": 8430,
      "auspices": 8431,
      "durable": 8432,
      "duped": 8433,
      "dashing": 8434,
      "ejaculation": 8435,
      "erection": 8436,
      "eighth": 8437,
      "grudged": 8438,
      "hindered": 8439,
      "pillars": 8440,
      "picnic": 8441,
      "sarcastic": 8442,
      "scholar": 8443,
      "heiress": 8444,
      "insuperable": 8445,
      "inseparably": 8446,
      "insensibly": 8447,
      "incomprehensible": 8448,
      "revealed": 8449,
      "recordable": 8450,
      "issue": 8451,
      "assailed": 8452,
      "asperity": 8453,
      "stroke": 8454,
      "thriving": 8455,
      "chimney": 8456,
      "espalier": 8457,
      "espionage": 8458,
      "deposited": 8459,
      "deprived": 8460,
      "detestable": 8461,
      "shepherd": 8462,
      "entangled": 8463,
      "liquor": 8464,
      "absorbing": 8465,
      "comprised": 8466,
      "aggrandise": 8467,
      "aggression": 8468,
      "sauciness": 8469,
      "unquestionably": 8470,
      "unsentimental": 8471,
      "unimpeded": 8472,
      "unceremoniousness": 8473,
      "experienced": 8474,
      "predictions": 8475,
      "predicament": 8476,
      "prohibited": 8477,
      "dispositions": 8478,
      "geography": 8479,
      "renounced": 8480,
      "clamorous": 8481,
      "volubility": 8482,
      "scornful": 8483,
      "Extracts": 8484,
      "palpitations": 8485,
      "Comtesse": 8486,
      "Compliments": 8487,
      "slumbering": 8488,
      "deficiencies": 8489,
      "hypocrisy": 8490,
      "_patriae_": 8491,
      "!)": 8492,
      ").--": 8493,
      "24": 8494,
      "26": 8495,
      ":'": 8496,
      "Ar": 8497,
      "Apo": 8498,
      "Ang": 8499,
      "Alad": 8500,
      "Agri": 8501,
      "Bra": 8502,
      "Conce": 8503,
      "Clar": 8504,
      "Cather": 8505,
      "Dr": 8506,
      "Es": 8507,
      "Give": 8508,
      "Grat": 8509,
      "Het": 8510,
      "Hap": 8511,
      "Jef": 8512,
      "Jud": 8513,
      "Ke": 8514,
      "Living": 8515,
      "Mil": 8516,
      "Other": 8517,
      "Pain": 8518,
      "Pover": 8519,
      "Plain": 8520,
      "Rev": 8521,
      "Rep": 8522,
      "RAD": 8523,
      "Sha": 8524,
      "Sof": 8525,
      "Som": 8526,
      "Sun": 8527,
      "Tr": 8528,
      "Ten": 8529,
      "Vigor": 8530,
      "Wit": 8531,
      "Walk": 8532,
      "_was": 8533,
      "_with": 8534,
      "_The": 8535,
      "_man": 8536,
      "_house": 8537,
      "_who": 8538,
      "_time": 8539,
      "_woman": 8540,
      "_What": 8541,
      "_Her": 8542,
      "_evening": 8543,
      "_respect": 8544,
      "_wanted": 8545,
      "_Taylor": 8546,
      "_Dixon": 8547,
      "_Wh": 8548,
      "_thoughts": 8549,
      "_Bath": 8550,
      "_blunder": 8551,
      "_boiled": 8552,
      "_ship_": 8553,
      "_Philip": 8554,
      "_Rev": 8555,
      "awe": 8556,
      "avery": 8557,
      "ahead": 8558,
      "bone": 8559,
      "bage": 8560,
      "bled": 8561,
      "bacy": 8562,
      "bows": 8563,
      "bounds": 8564,
      "city": 8565,
      "cert": 8566,
      "chard": 8567,
      "couth": 8568,
      "cident": 8569,
      "dart": 8570,
      "dint": 8571,
      "daw": 8572,
      "drunk": 8573,
      "emu": 8574,
      "east": 8575,
      "ecl": 8576,
      "epless": 8577,
      "ffic": 8578,
      "fended": 8579,
      "gli": 8580,
      "games": 8581,
      "gaily": 8582,
      "hang": 8583,
      "hanced": 8584,
      "ithe": 8585,
      "ivering": 8586,
      "lins": 8587,
      "lung": 8588,
      "mate": 8589,
      "mity": 8590,
      "mute": 8591,
      "mploy": 8592,
      "nful": 8593,
      "nourishing": 8594,
      "oll": 8595,
      "olive": 8596,
      "pence": 8597,
      "pull": 8598,
      "phers": 8599,
      "pacing": 8600,
      "rou": 8601,
      "ron": 8602,
      "risten": 8603,
      "rines": 8604,
      "sas": 8605,
      "sple": 8606,
      "sway": 8607,
      "scall": 8608,
      "slic": 8609,
      "tro": 8610,
      "tune": 8611,
      "tip": 8612,
      "tached": 8613,
      "tship_": 8614,
      "uto": 8615,
      "vic": 8616,
      "vau": 8617,
      "vowed": 8618,
      "wic": 8619,
      "wide": 8620,
      "waded": 8621,
      "zig": 8622,
      "zags": 8623,
      "inate": 8624,
      "inity": 8625,
      "inward": 8626,
      "inated": 8627,
      "infl": 8628,
      "incum": 8629,
      "inference": 8630,
      "inquiet": 8631,
      "informs": 8632,
      "inconsistent": 8633,
      "incident": 8634,
      "rees": 8635,
      "resort": 8636,
      "relic": 8637,
      "reappearance": 8638,
      "reprobation": 8639,
      "reprove": 8640,
      "reproofs": 8641,
      "redeem": 8642,
      "ourers": 8643,
      "erning": 8644,
      "erbread": 8645,
      "errant": 8646,
      "ervice": 8647,
      "haber": 8648,
      "haunt": 8649,
      "tofore": 8650,
      "toward": 8651,
      "ench": 8652,
      "enum": 8653,
      "enlarge": 8654,
      "enclosed": 8655,
      "encer": 8656,
      "enhanced": 8657,
      "enmity": 8658,
      "isfa": 8659,
      "istered": 8660,
      "aspect": 8661,
      "edition": 8662,
      "atisfa": 8663,
      "orchard": 8664,
      "stent": 8665,
      "stab": 8666,
      "stained": 8667,
      "sters": 8668,
      "strances": 8669,
      "stivity": 8670,
      "stars": 8671,
      "thur": 8672,
      "seren": 8673,
      "sealed": 8674,
      "verest": 8675,
      "chusing": 8676,
      "christen": 8677,
      "waste": 8678,
      "imitation": 8679,
      "imperfection": 8680,
      "impartially": 8681,
      "defe": 8682,
      "depre": 8683,
      "debt": 8684,
      "detached": 8685,
      "shells": 8686,
      "celi": 8687,
      "forgave": 8688,
      "forswe": 8689,
      "riche": 8690,
      "riding": 8691,
      "entious": 8692,
      "entiful": 8693,
      "entrap": 8694,
      "alian": 8695,
      "allusions": 8696,
      "ithwait": 8697,
      "maps": 8698,
      "mails": 8699,
      "irrational": 8700,
      "soli": 8701,
      "ctims": 8702,
      "ctrines": 8703,
      "lio": 8704,
      "liction": 8705,
      "libr": 8706,
      "lifted": 8707,
      "lized": 8708,
      "festivity": 8709,
      "whim": 8710,
      "whirl": 8711,
      "mule": 8712,
      "nearest": 8713,
      "eteen": 8714,
      "absen": 8715,
      "abstained": 8716,
      "agrees": 8717,
      "moves": 8718,
      "conceptions": 8719,
      "peare": 8720,
      "urance": 8721,
      "rospect": 8722,
      "robor": 8723,
      "sack": 8724,
      "saves": 8725,
      "sails": 8726,
      "quy": 8727,
      "quaint": 8728,
      "terseness": 8729,
      "polish": 8730,
      "dog": 8731,
      "doings": 8732,
      "doctrines": 8733,
      "unsaid": 8734,
      "unpretty": 8735,
      "unmarried": 8736,
      "unasked": 8737,
      "undered": 8738,
      "unanswered": 8739,
      "unmod": 8740,
      "unspent": 8741,
      "uncivil": 8742,
      "unavoid": 8743,
      "unintelligible": 8744,
      "unselfish": 8745,
      "unsteady": 8746,
      "unmanage": 8747,
      "unbid": 8748,
      "unseason": 8749,
      "unchecked": 8750,
      "unclosing": 8751,
      "unbroken": 8752,
      "unmirth": 8753,
      "ungenial": 8754,
      "uncouth": 8755,
      "untoward": 8756,
      "nowhere": 8757,
      "keen": 8758,
      "lfering": 8759,
      "perusal": 8760,
      "ourishes": 8761,
      "ourtship_": 8762,
      "lore": 8763,
      "loquy": 8764,
      "exten": 8765,
      "expi": 8766,
      "extri": 8767,
      "endurance": 8768,
      "ifies": 8769,
      "outed": 8770,
      "whiche": 8771,
      "shod": 8772,
      "shivering": 8773,
      "aces": 8774,
      "aciously": 8775,
      "willed": 8776,
      "preface": 8777,
      "precaution": 8778,
      "presides": 8779,
      "predom": 8780,
      "precision": 8781,
      "rave": 8782,
      "ulative": 8783,
      "proposing": 8784,
      "management": 8785,
      "mania": 8786,
      "appreciating": 8787,
      "folio": 8788,
      "dish": 8789,
      "disrespect": 8790,
      "distrust": 8791,
      "disposing": 8792,
      "discontent": 8793,
      "disengage": 8794,
      "discontinuing": 8795,
      "dismal": 8796,
      "disclaiming": 8797,
      "plentiful": 8798,
      "Italian": 8799,
      "whoever": 8800,
      "oks": 8801,
      "shoulder": 8802,
      "goodhumoured": 8803,
      "goodnatured": 8804,
      "forever": 8805,
      "orts": 8806,
      "timed": 8807,
      "tax": 8808,
      "tauto": 8809,
      "greatness": 8810,
      "medals": 8811,
      "whence": 8812,
      "ruden": 8813,
      "vings": 8814,
      "hurting": 8815,
      "happens": 8816,
      "spencer": 8817,
      "cock": 8818,
      "coaches": 8819,
      "readiest": 8820,
      "ciphers": 8821,
      "undertaken": 8822,
      "undervalued": 8823,
      "oped": 8824,
      "tenaciously": 8825,
      "ranks": 8826,
      "indefatig": 8827,
      "justest": 8828,
      "asserted": 8829,
      "?--\"": 8830,
      "prone": 8831,
      "akened": 8832,
      "younger": 8833,
      "turnip": 8834,
      "jecture": 8835,
      "overheard": 8836,
      "overthrow": 8837,
      "overcareful": 8838,
      "lights": 8839,
      "lighter": 8840,
      "heretofore": 8841,
      "standers": 8842,
      "walker": 8843,
      "doubled": 8844,
      "Hart_": 8845,
      "sublim": 8846,
      "desert": 8847,
      "deserted": 8848,
      "belief": 8849,
      "cameos": 8850,
      "kindred": 8851,
      "Cooper": 8852,
      "lessons": 8853,
      "solitude": 8854,
      "cream": 8855,
      "comfortless": 8856,
      "brows": 8857,
      "braces": 8858,
      "contain": 8859,
      "stories": 8860,
      "epithe": 8861,
      "homely": 8862,
      "homewards": 8863,
      "bleness": 8864,
      "blundered": 8865,
      "guidable": 8866,
      "handled": 8867,
      "victims": 8868,
      "mistakes": 8869,
      "void": 8870,
      "wrist": 8871,
      "fullest": 8872,
      "maternal": 8873,
      "awes": 8874,
      "awakened": 8875,
      "survey": 8876,
      "aids": 8877,
      "generations": 8878,
      "cleverest": 8879,
      "poorly": 8880,
      "licitly": 8881,
      "licentious": 8882,
      "mermaid": 8883,
      "meanly": 8884,
      "flourishes": 8885,
      "dealt": 8886,
      "impending": 8887,
      "impulse": 8888,
      "implore": 8889,
      "implicitly": 8890,
      "ficacy": 8891,
      "judges": 8892,
      "qualify": 8893,
      "personage": 8894,
      "Randall": 8895,
      "angles": 8896,
      "hearts": 8897,
      "confuse": 8898,
      "unemploy": 8899,
      "circum": 8900,
      "minced": 8901,
      "respective": 8902,
      "respectfully": 8903,
      "courses": 8904,
      "spoon": 8905,
      "efficacy": 8906,
      "pedal": 8907,
      "direful": 8908,
      "gratifications": 8909,
      "reasons": 8910,
      "muslin": 8911,
      "muslins": 8912,
      "wonderings": 8913,
      "meets": 8914,
      "deciding": 8915,
      "colder": 8916,
      "coldly": 8917,
      "busiest": 8918,
      "embod": 8919,
      "embraces": 8920,
      "scram": 8921,
      "scouted": 8922,
      "persuasions": 8923,
      "completest": 8924,
      "completion": 8925,
      "interposed": 8926,
      "interview": 8927,
      "pier": 8928,
      "temptations": 8929,
      "gingerbread": 8930,
      "drawers": 8931,
      "relating": 8932,
      "horrid": 8933,
      "players": 8934,
      "excesses": 8935,
      "dares": 8936,
      "CHARAD": 8937,
      "badly": 8938,
      "finishing": 8939,
      "clothed": 8940,
      "thanker": 8941,
      "traffic": 8942,
      "beginnings": 8943,
      "corals": 8944,
      "corrobor": 8945,
      "largest": 8946,
      "portfolio": 8947,
      "roundabout": 8948,
      "disapprove": 8949,
      "humility": 8950,
      "retrospect": 8951,
      "fondling": 8952,
      "remembering": 8953,
      "breast": 8954,
      "choose": 8955,
      "tedious": 8956,
      "forwarding": 8957,
      "forwarded": 8958,
      "reality": 8959,
      "honours": 8960,
      "honouring": 8961,
      "penury": 8962,
      "plotting": 8963,
      "Whom": 8964,
      "waters": 8965,
      "watches": 8966,
      "quarto": 8967,
      "approves": 8968,
      "helping": 8969,
      "helpmate": 8970,
      "kespeare": 8971,
      "sequel": 8972,
      "possibilities": 8973,
      "tray": 8974,
      "intimation": 8975,
      "accepts": 8976,
      "liveliest": 8977,
      "styles": 8978,
      "importation": 8979,
      "fearless": 8980,
      "casement": 8981,
      "Encouragement": 8982,
      "fourth": 8983,
      "boyish": 8984,
      "instruction": 8985,
      "instruments": 8986,
      "instrumental": 8987,
      "faultless": 8988,
      "Absurd": 8989,
      "Abdy": 8990,
      "lingering": 8991,
      ",'\"": 8992,
      "eyebrows": 8993,
      "workmen": 8994,
      "Yours": 8995,
      "groundless": 8996,
      "occupations": 8997,
      "steadier": 8998,
      "tables": 8999,
      "schemed": 9000,
      "teazed": 9001,
      "Thy": 9002,
      "commanding": 9003,
      "commandingly": 9004,
      "gallantries": 9005,
      "waiters": 9006,
      "dutiful": 9007,
      "carpet": 9008,
      "phies": 9009,
[...]
