[PAD]
[UNK]
[CLS]
[SEP]
[MASK]
!
"
&
'
(
)
,
-
.
0
1
2
3
4
6
7
8
:
;
?
[
]
_
`
a
b
c
d
e
f
g
h
i
j
k
l
m
n
o
p
q
r
s
t
u
v
w
x
y
z
##e
##p
##t
##m
##b
##r
##n
##w
##i
##g
##l
##o
##s
##v
##c
##a
##h
##d
##y
##x
##u
##k
##f
##j
##z
##q
##0
##8
##1
##6
##4
##3
##er
th
##in
##ou
##nd
the
to
##ed
##at
##on
##ing
##en
and
##es
ha
##or
of
##ll
be
##is
##it
##an
##ar
##as
no
sh
in
##le
##om
her
##re
##ld
you
it
not
she
wh
##gh
was
##ve
##ly
he
##ch
##ut
##se
##et
##st
##ould
##ion
##ce
mr
that
##ay
##ent
as
for
##ow
##ith
##ery
##ri
##ght
had
on
su
##im
##id
##ir
with
an
but
##ere
##ct
re
have
is
so
at
##od
##al
very
##ur
##ill
##ver
##her
##ma
##est
his
mu
##ight
##ess
##ad
##ter
##ee
all
kn
do
me
em
him
##pp
con
de
##all
we
com
emma
pr
ch
sa
##ore
my
##ble
could
would
ne
##ain
fr
##ect
har
##ood
been
##lf
ev
mis
##ak
##ation
##ot
ex
st
##lt
mrs
##ic
whi
any
##art
##end
miss
##our
lo
will
am
##self
were
there
##ge
##am
what
##ort
##ant
en
by
must
per
##ome
from
##li
they
##riet
which
this
##os
or
qu
##ul
##op
harriet
man
how
see
##out
##able
sp
know
##ard
##itt
such
said
##ink
more
##ok
thou
al
than
them
li
##ind
if
thing
##ate
much
one
fa
are
think
##ure
##ite
your
dis
every
##reat
west
weston
ag
can
##ff
##ry
who
well
##ouse
##and
un
##hing
##lton
elton
##ance
##ment
##ong
ab
##qu
say
##ley
when
##ost
##ell
##il
##ather
should
knight
knightley
##ive
never
good
se
litt
part
up
little
##ence
##way
being
##ous
did
##wn
only
ac
##ally
##mp
##ity
ind
##ap
co
##alk
##ved
##one
##ish
great
comp
fri
##us
##nder
##ake
##ast
fe
wood
woodh
##fore
di
might
woodhouse
ju
wor
int
now
##ane
look
##leas
their
friend
ot
quite
tim
##ke
##ving
some
own
other
jane
##ody
gr
##un
app
##age
##me
##fi
herself
##med
fair
##fa
att
go
pleas
##ness
thought
ad
ob
##eel
##ose
##ful
##ab
time
af
##ol
feel
le
##ert
##ade
pl
happ
most
##pect
##ru
dear
##ck
##urch
res
##ree
again
##other
has
pre
before
too
nothing
##ear
us
bet
about
church
##igh
let
##ra
day
##ough
churchill
pro
##ame
fairfa
fairfax
like
cons
##au
##ach
inde
fir
even
##ways
out
always
##ank
br
##ious
##ning
##si
shall
##are
soon
may
po
tw
sm
##ine
first
sure
##de
##ound
long
under
after
frank
just
hop
##ng
##ady
##ged
without
oh
##ner
want
body
##pt
father
made
wish
##fe
indeed
mar
rep
##ice
##um
ro
##ten
##ject
##anc
young
ever
##ever
##ies
##ions
talk
##th
##ward
imp
##ily
##fort
supp
high
##ings
beg
##urn
though
##ffer
bat
way
then
##ise
##eld
##ass
##ress
##ried
come
two
##cl
upon
##oun
off
##arm
spe
op
better
##ossi
jo
##com
##own
##field
here
ar
##ew
del
##ond
pres
##ro
##oub
##lie
##ether
into
mor
over
##not
walk
##iv
bl
give
pers
bates
##iness
make
wom
cannot
##ertain
##int
hart
hartfield
himself
letter
kind
ass
sat
##pl
mean
done
##oubt
sub
rather
speak
belie
##per
really
certain
seemed
##ider
mom
cont
##ular
moment
som
somet
having
does
##ace
word
inter
wr
while
consider
vis
enough
appear
##ined
##cc
mind
##ave
ret
yes
des
however
##ull
hear
hope
##ber
many
visit
##ty
##led
woman
pass
love
doubt
comfort
car
##ci
poor
home
manner
underst
##ced
##ag
##ury
room
away
our
##aint
##ated
prop
perf
happy
pe
##act
nat
##ult
dist
take
##ossible
aff
##ction
##ately
obli
##ary
last
sen
##ild
going
##itu
##bury
##we
highbury
set
##ist
hand
came
present
inf
ext
##ention
##ig
##oy
##ide
##oll
half
eng
morning
##emp
acqu
yet
heard
call
sort
still
felt
pleasure
another
end
exce
ide
its
occ
saw
gen
hour
tell
str
##osed
perfect
same
till
##ire
##ount
few
mat
tr
char
myself
##oth
##ably
cl
house
##sw
##riage
##ither
feelings
##ations
ser
##icular
particular
reg
understand
##aps
sur
##wards
mart
subject
certainly
gener
martin
##haps
perhaps
ima
conf
right
##most
friends
gent
##its
imag
##ior
##use
##ne
##ught
child
party
acc
##ves
ask
delight
##ret
gl
best
something
tru
inst
##alls
allow
##ange
idea
##ack
expect
##ue
thr
deal
bec
##aking
believe
##gether
##swer
##aken
##lied
pret
often
smith
cr
find
satis
fort
those
return
##ft
coming
##ople
people
ought
##ac
answer
fam
acquaint
im
down
sec
place
old
##body
rand
##fied
where
##ase
sin
jud
##hn
ref
marry
john
person
gentle
found
rec
spir
differ
inv
##medi
interest
cour
##vour
##amp
open
immedi
randalls
##ord
almost
adm
##ual
##aught
evening
el
ill
heart
sus
ear
affect
both
equ
conv
comm
agree
adv
suppose
begin
##irc
else
cried
giv
hard
##ick
##aut
knew
looked
##ang
short
world
##ser
##xt
##ety
compl
ey
##ause
##cess
read
##ason
circ
wo
respect
##ower
super
get
##app
##eep
attach
rest
sc
replied
possible
##ffic
least
obliged
put
once
year
exp
##pend
ent
wonder
side
gone
wanted
perry
camp
lady
add
turn
##ife
dire
##bell
##reme
extreme
campbell
##riz
compan
resol
immediately
warm
##cei
##iment
##ired
natur
family
superior
surp
sor
##les
##ition
##unt
gentlem
together
obser
able
##ple
temp
meet
##ited
ready
whole
seen
three
prom
life
seem
bo
nobody
dec
sir
whom
opin
carriage
less
mother
wife
back
##ility
bus
foll
thank
given
told
new
disp
act
inc
fortun
det
contin
gu
min
happiness
nor
pretty
far
##mber
forg
looking
hardly
surpriz
situ
##ute
abs
##ances
##oice
betwe
between
##ided
##ully
since
direct
isab
##ella
appro
account
isabella
cle
dra
##ile
##ove
these
##ren
che
cole
general
circum
fl
extremely
sorry
hum
##agement
left
sett
through
next
strong
daught
reme
##odu
point
circumst
daughter
don
##ix
beh
##sel
rem
perfectly
course
care
##ought
##ared
##ently
##be
##aim
cold
comple
children
towards
whether
either
assure
equal
therefore
spok
god
reason
dre
known
din
longer
opinion
##ern
enter
persu
sma
##now
##less
acquaintance
small
pi
smil
talked
sense
situation
deg
##raid
##comm
things
afraid
began
##lic
near
favour
true
affection
es
gi
prob
spirits
taken
object
vi
##well
##red
##day
hands
##cour
##erm
beaut
sent
door
because
##fer
##itation
##irl
depend
imagine
##ging
##dd
##cept
exact
making
power
##row
change
girl
##eek
others
follow
aw
hon
bear
fanc
brother
gave
par
feeling
passed
proper
##ceived
exc
##selves
##ened
agreeable
##te
##ceed
chap
glad
bad
wa
##if
##cious
use
##dard
##vers
goddard
need
mist
state
exactly
chapter
##asion
why
form
compliment
air
##pic
##bert
##ens
manners
remember
degree
##orth
thinking
aunt
##ued
quest
attention
hor
##ually
##ory
saying
diffic
grat
difficult
dare
sil
##aid
##aged
anx
leave
##lor
##atch
stay
yourself
disapp
sl
##ial
col
natural
week
##riv
years
eyes
creat
son
##ea
except
##eness
##ured
bring
full
lar
mus
seeing
usual
brought
appeared
business
mention
voice
##cern
satisfied
ele
each
##ating
prev
beginning
pap
tay
##ud
##alth
taylor
name
##fully
##ers
shew
among
express
cheer
head
##oss
pleasant
##itude
determ
convin
opp
suffer
soci
used
particularly
dinner
view
##ished
lau
night
##oint
##av
necess
days
charact
serious
laugh
pain
##yond
##ust
beyond
##itting
walked
means
##ination
charm
talking
giving
honour
##iting
##utes
##ign
attachment
minutes
fond
keep
mon
##ister
play
called
meant
gentleman
directly
##res
##ised
married
entire
disappoint
##ting
##ied
##aise
##joy
hel
enjoy
serv
draw
fine
character
ah
hus
##ins
##isten
##uth
hur
##ip
matter
donwell
##cri
##erve
une
walking
occasion
worth
##par
##ndon
doing
london
pleased
music
convers
stand
eleg
##ended
delightful
danc
##ie
regard
month
##eng
recomm
##onel
help
eas
went
##air
real
cond
##acy
colonel
listen
##enc
ste
##used
different
decided
complete
society
##ling
##imes
temper
fancy
round
encour
disc
attent
decl
plan
impossible
pur
try
##xon
took
dixon
##over
##ock
ins
##ready
already
lik
wished
excell
##anger
mere
ri
incl
##ures
expl
nature
early
##urning
quick
##iet
##ingly
##ending
met
sit
##uri
##orm
smile
believed
words
returned
suspic
fart
##wh
##reh
evil
question
##old
health
conce
sometimes
pay
##ark
concern
quar
speaking
engagement
settled
##bour
##ution
##ained
expected
fortune
##ient
##ible
five
lad
mer
pat
swe
##gment
##know
acknow
supposed
company
entirely
ladies
acknowled
likely
##ossib
##ager
asked
sch
##ted
##ons
themselves
unc
hoped
conversation
sister
##iable
##ester
intim
forward
##ively
##ified
##sequ
rema
neither
##like
farther
eager
##up
##ities
accept
letters
creature
sweet
whose
##ush
afterwards
suspect
continued
inqu
neigh
morrow
kindness
common
probably
cheerful
neighbour
bre
danger
sitting
##lu
##ishing
against
claim
anxious
convinced
##band
bel
safe
quiet
yester
##aded
meaning
wrong
yesterday
requ
grand
spoke
sim
##ience
knows
ago
conscious
turned
clever
circumstance
husband
##itted
news
##usion
robert
assist
truth
difference
##iful
##xion
pros
wanting
men
consequ
##amed
allowed
added
guess
ball
##ler
ens
marriage
advant
meeting
excellent
bri
##kins
##iled
##aste
thoughts
admir
eff
##gr
##ses
##ense
##olute
import
comfortable
humour
four
possib
sy
##rr
amiable
##sible
surprized
papa
determined
tri
##aw
##ected
fear
recoll
##come
##oud
##akes
##outh
face
distress
engaged
dread
fix
lu
##bation
##inary
excl
stru
obliging
regret
handsome
charming
const
produ
##unic
proceed
communic
forget
slight
large
rich
received
work
difficulty
curi
got
taste
##osition
satisfa
absolute
fo
tend
##uct
##ash
los
##osity
grow
prefer
match
necessary
live
please
offer
judgment
wind
empl
intell
instru
recommend
recollect
employ
est
sad
##ouch
##combe
arr
second
incre
enscombe
fin
sight
##edly
##mand
##ote
self
attemp
appearance
dancing
##rodu
##uring
praise
introdu
occur
##mer
##antly
says
extra
surprize
instrument
##ead
##iffer
ord
indiffer
greatest
worse
hurry
case
mod
mort
##mb
##ili
sto
prof
interesting
resolution
aware
civ
map
##land
reach
weather
fault
looks
grove
absolutely
maple
coun
late
ten
rel
judge
watch
conne
sev
plain
acquainted
persuaded
excuse
hint
##el
##hip
##enty
bless
months
##ength
boy
mad
pity
##mon
esp
hes
tea
val
##atter
event
accom
delic
eye
priv
##of
##ising
sty
delay
influ
hours
refle
smiling
sing
##cise
toler
##iss
gratitude
ap
##iz
##ston
whenever
times
blush
circumstances
merely
infer
conduct
count
led
none
##und
coll
understanding
##retch
companion
approbation
break
struck
curiosity
style
justice
confid
followed
mentioned
completely
consequence
age
##ces
##uc
##under
##itable
disag
unh
distin
earn
actually
entered
tender
loss
disagree
##ub
hab
command
joy
occup
delighted
beauty
vain
##eci
##erved
sudd
chuse
generally
crown
##ordinary
effect
extraordinary
especi
sudden
cor
dr
##een
##ying
##rived
knowing
greater
gentlemen
easy
advantage
mil
und
##cap
wel
ground
blind
secret
marrying
resolved
spoken
enjoyment
sche
order
especially
thor
##ames
unp
fortunate
prevent
prospect
luck
thorough
tre
##ii
sum
loved
twenty
silent
table
##iour
##gg
##og
within
##allant
pray
indul
sensible
behav
horses
satisfaction
behaviour
tried
##ries
alarm
parties
proof
consideration
descri
instead
spirit
purp
influence
dut
##ressed
write
hearing
intellig
cal
den
due
fall
gallant
##wkins
hawkins
##fice
pla
invitation
attached
clear
escap
drawing
attempt
country
##hamed
notice
ashamed
##rupt
beautiful
attentions
##grat
av
cap
ed
turning
##su
##ceive
##eech
speech
join
tran
wait
elegant
##where
belong
purpose
cou
hen
ke
taking
##ath
amuse
lead
presu
deserve
observe
conceal
quarter
henry
gri
send
wretch
##ph
##ofort
##anofort
##reed
alone
attend
pleasing
highly
confess
became
answered
pianofort
grie
pianoforte
alt
run
comes
fact
hopes
repe
presently
telling
disposition
remark
admiration
deep
err
hill
hold
mine
##oved
##edit
##anity
suck
##pped
prin
sake
spite
exclaim
earnest
educ
couple
caut
lately
##iety
##aster
note
solic
thinks
prov
endea
##ific
service
inferior
endeavour
##ative
##ork
##ased
chance
compreh
distance
regular
weeks
important
princi
mot
odd
congrat
stop
##ateful
understood
campbells
trying
fixed
profess
unhapp
congratul
mid
sigh
##cceed
##hood
##ines
suffic
succeed
abbe
inform
seems
servant
abbey
snow
##iam
william
knowled
contr
scar
promise
miles
duty
knowledge
law
tired
##tain
##gn
shock
lost
repro
observ
disappointment
encouragement
intimacy
claims
rid
ration
##itten
written
forgot
summer
ce
fell
##night
##wise
##ogether
lose
##osing
women
desir
favourite
mistaken
consciousness
altogether
information
low
##iction
##cu
##kward
##inter
##ouble
hers
ang
def
##ortun
happily
##fortun
art
box
approach
awkward
opportun
views
master
num
lived
indu
##olog
##ages
charge
recover
behind
reasonable
suspicion
window
dance
eat
makes
ut
##sand
town
thousand
##ability
##angu
unhappy
scarce
bed
vent
##so
evid
also
prep
prepar
wishes
charade
friendship
credit
entreat
##ency
arrange
##arily
agreed
separ
scru
silence
disappointed
likeness
uncle
simple
growing
connexion
severe
wretched
repeated
rap
wishing
tot
##ater
##reet
concl
whatever
eltons
##abl
happened
independ
sens
imagined
smallest
accompl
confidence
rational
lines
nons
rain
wed
##ps
##bed
##inite
##ene
neg
worst
wrote
trust
pict
mistake
former
worthy
standing
listened
kept
fre
james
ner
##gust
becom
sun
##alent
fright
consent
considering
calling
mater
fortnight
respectable
##iece
inclination
scheme
bor
light
touch
tone
impro
cross
hesit
dest
pen
exer
exert
##mpt
somebody
thrown
reading
useful
aston
gard
wit
##ven
##ym
##ining
##ides
press
fres
spent
##ilities
subm
##ccess
strength
conviction
book
reflection
apolog
scarcely
farm
ir
ma
vanity
##iod
period
##liar
compar
pecu
observed
waiting
inquir
distinct
welcome
opportunity
peculiar
vic
##rance
##ding
##anged
inj
##rive
success
living
otherwise
warmly
promised
busy
disposed
laughing
education
arrangement
totally
picture
exercise
cut
catch
eli
pri
talent
##ov
##dle
##ision
heav
dep
appar
dearest
arrived
returning
passing
##ney
equally
minute
uneas
decidedly
dreadful
reached
thoroughly
nonsense
ease
siz
var
##rid
compass
friendly
churchills
bath
infinite
exceed
refuse
suspicions
safely
fool
delicacy
single
forgotten
compassion
move
sick
##ishment
##ceiving
smiled
remained
occurred
stopped
disagreeable
fut
niece
ur
##right
dev
prot
excess
mark
blunder
ourselves
finding
sinc
possibility
avo
number
fresh
vicar
future
bes
hund
past
##ixt
##ues
conn
agitation
seated
cox
arriv
invited
dream
compliments
gratified
##uded
suffering
explan
quarre
possibly
calm
frequ
besides
hundred
arrival
caught
rate
sound
##ex
##fast
##ison
amused
##osit
spend
##uses
appreh
##tenance
considered
##aging
flatter
sentiment
during
laid
relie
weym
dislike
unw
coles
grave
resent
proved
##ives
writ
considerable
visits
trouble
court
unex
musical
neighbours
indifferent
occupied
caution
weymouth
fig
king
ru
##ates
##rew
anywhere
grateful
road
complexion
anxiety
##ossess
laughed
elegance
attentive
accomplished
wedding
fit
paid
##ray
##ingu
##arr
##vey
ford
##ament
close
opening
absent
difficulties
##ief
acknowledge
produced
princip
bur
jour
##ality
neph
div
joined
proposed
ideas
pie
discover
value
habit
undoubt
inquiry
pride
burst
journey
nephew
fast
treat
##tory
##ier
##vous
youth
history
##eeper
saf
stood
arm
carry
afford
incon
probability
remain
bride
placed
suckling
ay
dine
fire
mess
##sh
office
fores
stra
##ards
parting
intended
consult
famili
##ception
horse
seriously
neighbourhood
indifference
tolerably
angry
aye
eight
posit
six
##ror
convey
pract
miser
ways
housek
address
##lesome
persuade
fears
employment
private
collect
breakfast
escape
becoming
borne
##ridge
nice
sink
##mond
##iently
##lin
##oc
hair
##isk
##lect
soft
##mama
##ardon
united
unfortun
assur
opened
entertain
shewed
##airs
grandmama
richmond
trans
amusement
eld
sign
##rop
##cing
##ump
##isite
##utter
##ortion
##anted
##oke
uns
betray
impat
expectation
conven
smiles
suffered
merit
foot
reproach
utmost
prepared
material
bas
lay
nash
##man
##ring
##lour
sho
emb
proud
##ources
desp
confusion
imagination
instantly
advice
objection
##course
parlour
intimate
lively
##ification
desirable
vicarage
piece
cause
ire
shame
share
receiving
##illing
meas
misery
stri
##leasant
apples
##abet
visitor
strange
martins
admired
gives
getting
absence
##ifying
matters
easily
liked
boys
##mony
unpleasant
servants
ireland
fat
post
vol
##eal
##ooth
ann
anim
feat
plac
##iously
smooth
report
distingu
expecting
secured
recon
naturally
dining
powers
following
mistress
concerned
countenance
gallantry
rapid
nervous
inconven
cand
sk
##esome
##etch
story
diseng
above
intent
reserve
bro
moments
interrupt
writing
passage
perform
endure
circle
moder
prospects
neglect
size
infinitely
foolish
explanation
message
bir
mo
ra
squ
tall
tra
xv
##ially
thus
thro
##ening
##anch
suit
chos
##ices
partner
##ouses
cool
##ples
rooms
peace
accord
warmth
tempt
nearly
excepting
preference
blessing
##ission
presume
sensations
improve
apparent
figure
undoubtedly
positively
housekeeper
square
throat
chosen
##ldom
formed
rej
street
##osal
libert
seldom
proposal
distur
particulars
become
judged
admitted
folly
guest
questions
paying
syll
proceeded
increased
sincere
cord
hot
line
pol
possess
south
##bly
##wber
##gra
##lee
##oted
##opt
feared
grace
reply
truly
invite
immediate
favourable
expressed
fancying
assistance
trif
mortification
earnestly
comprehend
evidently
excessively
avoid
connected
writes
strawber
broad
ama
bene
cure
pub
wing
##ail
##aving
##reason
mem
##arted
willing
unreason
hearted
complaint
tempted
displeas
continue
##ension
##ences
declar
madam
collected
concealment
remarkably
exclaimed
solicitude
recovered
frightened
comparison
families
disengaged
amaz
public
wingfield
fully
fash
langu
ph
raise
vex
##ross
##gress
##ool
##aily
thir
##lly
##rig
chr
chair
exist
##riety
alter
wholly
seat
gover
##cles
around
overcome
blame
refused
addition
seeming
drawn
acknowledged
school
required
establ
induce
announ
trave
fashion
bar
bra
dark
la
lament
maid
pu
pop
winter
##em
##ered
##isper
##itated
whisper
sugg
##illy
sacri
env
qual
liber
disgust
twel
intercourse
perfection
throw
persons
illness
advise
prompt
girls
staying
plans
suspected
produce
communication
lucky
resentment
safety
miserable
liberty
suggest
twelve
grew
irr
ign
loud
length
mix
nay
pit
sw
water
##iest
##oring
##riving
harm
##icity
compared
##unsw
fairly
##earance
brunsw
supper
assured
##plicity
troub
instance
earli
continual
check
settle
##lessness
##commod
slow
paper
playing
patty
preferred
increase
intelligible
observation
separate
sunk
protest
##umph
places
ignor
brunswick
hith
pork
##tic
##oom
##oly
##cul
##ont
exam
perceive
sea
selin
##erto
improp
judging
invol
boast
flutter
human
doors
stead
simplicity
importance
finished
selfish
error
sufficiently
succeeded
venture
talents
exceedingly
syllable
hitherto
selina
au
daily
mut
risk
##acles
##read
itself
receive
##iced
bye
##osure
partial
indis
##using
consol
speed
kindly
appears
deserved
cared
restr
wonderful
smallridge
parish
parade
evils
watched
habits
quarrel
christ
earlier
orig
sixt
tear
##rence
##ges
##lanch
shru
sole
melanch
conject
coach
felic
grad
attra
resources
sooner
confined
admire
turns
superiority
thanks
rememb
honourable
keeping
steady
patience
arranged
reflect
tolerable
independence
origin
sixteen
melancholy
mone
##mas
##bb
##lish
tong
##isure
death
##aining
##ectacles
perple
spring
spectacles
seiz
leisure
prove
##sib
repres
english
subjects
confir
interested
admit
bringing
larkins
necessity
merits
communicated
civil
civility
hesitation
defic
garden
unwilling
principal
intentions
money
perplex
represent
auth
bust
cur
lab
mile
##vi
##xions
##uable
hast
##asing
##oms
shewn
forty
forced
##ident
loves
unless
##ously
indign
intention
feels
reserved
progress
begun
visiting
passion
england
putting
acting
entering
depended
step
connexions
ordered
intelligence
tranqu
apologies
kingston
fatig
governess
author
bustle
bu
dances
ow
pa
pause
ren
silly
te
##mother
##ailed
shut
sof
exqu
enc
perceived
##ulous
fail
accommod
dign
##road
desired
comfortably
tells
##untarily
drew
##ference
pains
unequ
encouraging
sisters
eagerly
acceptable
grandmother
bright
introduced
cease
trusted
astonished
strawberries
memory
troublesome
exquisite
bit
land
purch
pardon
rose
term
york
##pan
##sion
##ship
##zabet
##itic
##itations
##arity
held
render
choice
displ
sever
attack
leaving
proc
supply
highest
offence
distant
surry
older
##ify
previous
declined
pursu
insu
exploring
accepted
hurrying
faults
accompan
grounds
tremb
elizabet
##overy
heavy
rule
##arrass
##shire
assurance
embarrass
birth
language
display
elizabeth
dull
houses
lord
##iries
##gu
##sed
##aved
thin
##edi
haz
weak
##ott
agitated
##ments
cooll
grown
grue
grac
happen
certainty
design
pretence
opinions
behaved
persuasion
honest
properly
declare
inquiries
require
sympt
constit
distinction
leading
deeply
congratulations
fellow
independent
moving
indisp
consolation
tongue
coolly
gruel
symptoms
bak
hence
mill
vul
wise
ye
##ec
##gen
##af
##asions
shake
forb
missed
spo
abroad
higher
begged
played
quickness
beloved
prevented
descript
errand
provok
shocking
induced
windows
scruples
witness
irres
uneasy
frequent
conveyed
inconvenience
several
vulg
drive
lane
ost
rank
sangu
slee
##ield
##lings
##cy
##dent
##ises
##itch
shaken
##omest
##vering
chat
staid
unlike
result
lovely
matri
closed
glance
secure
refres
natured
sorrow
income
setting
convince
steps
inclined
engagements
advantages
mortified
stoop
valuable
drink
escaped
grieved
farmer
peculiarly
uneasiness
impatient
shook
distinguishing
existence
##sibility
teach
sanguine
eating
fetch
ter
tir
##ian
##liness
##atory
##onoun
sol
##verse
pronoun
chief
faith
abrupt
parted
##olence
precise
undert
repet
support
proportion
surm
resolve
coldness
colour
hurt
danced
sweetness
employed
introduce
watching
delicate
corner
blindness
indulg
indulge
stopt
middle
pressed
relief
unsus
interrupted
guests
declaration
renew
soften
apt
bore
cere
dared
ga
lim
rive
##pond
##tained
##ilt
##val
##ciled
##uing
##armed
shop
shade
ine
##etr
##owed
antic
##urday
##ading
##eem
prud
exult
alarmed
westons
unne
applic
attending
pleasures
##pected
saturday
deser
trade
clock
pretend
differently
openly
restor
warmest
draught
remov
##respond
condition
civilities
correspond
fallen
sufficient
penetr
##mption
gardens
elig
treatment
reconciled
cordial
unreasonable
sacrifice
liberal
felicity
remembrance
labour
yorkshire
description
rivet
anticip
unnecess
removal
dress
lower
mild
nur
pun
##power
##back
##enced
bew
##uted
##cel
conc
misch
una
unf
unfa
attended
happier
resist
##uming
arise
argu
overpower
acquies
wherever
personal
decision
humble
points
nearer
parcel
horror
larg
tempered
discovery
eagerness
triumph
distressing
dreadfully
offered
motive
artic
##ableness
urge
xvii
christmas
gradually
attraction
baked
breat
cake
maint
rous
song
##mn
##hand
##ensible
##lling
nove
white
##irt
##cted
##tern
##eemed
alli
chose
misunder
spare
lives
##mpath
greatly
firm
repent
speaks
contrived
doubted
comforts
propriety
asking
readily
direction
companions
observing
forgive
stronger
dependence
forming
##uding
occasionally
recommended
inquire
sympath
lux
constantly
increasing
mortifying
seven
welcom
denying
frequently
unfortunate
features
sincerely
trifling
august
solemn
terms
misunderst
card
gay
jan
moved
ride
rising
##gge
##leness
##uary
##zen
##urrence
##vered
deli
stir
quitted
alert
goes
brain
##ounded
impru
subst
contemp
doubtful
acquit
class
instant
##fted
affections
scene
board
fancied
cheerfully
conceit
satisfact
recommendations
introduction
corre
falling
capable
professions
midst
conclusion
destin
penance
afforded
eldest
voluntarily
moderate
bragge
ignorant
january
action
balls
cop
dressed
later
named
ran
wal
##ned
##oci
##just
hall
##omin
heat
##ented
##ows
##rib
suited
meal
##pping
pra
ample
##ulate
unres
unjust
composure
diff
##olent
lear
wants
talker
supposing
associ
ours
occasions
complain
respects
expense
guided
depends
##cerned
expressions
determination
opposing
discus
accepting
dangerous
quietly
forgetting
intellect
recommendation
finest
reaching
describe
described
motives
awkwardness
preparation
scruple
submitted
temptation
qualities
improper
authority
accommodation
irresist
matrimony
tiresome
mischief
alliance
cott
egg
sore
sour
##pet
##get
##umed
##inent
##owd
##riages
##male
dem
dece
neat
stup
pert
perse
spread
aloud
knightleys
female
resumed
brist
hoping
##umn
##fferable
endured
glow
critic
crowd
incons
approved
strongest
daughters
removed
careful
affectionate
powerful
parent
enjoyed
included
##ushed
cheerfulness
guessed
trick
recollection
recollections
attempted
hints
plaister
solicit
professed
sensation
crossed
hesitating
sentiments
addressing
rejoice
polit
displeased
popular
steadily
tears
coachman
purchase
insufferable
constitution
precisely
eligible
larger
destiny
stupid
bristol
alike
cens
lace
nine
tet
tues
##ude
##fy
threat
ingen
height
##ection
misfortun
##otion
manage
seek
ungra
sept
compare
adopt
consci
##ression
meanwh
interference
carriages
extent
engaging
surr
delightfully
satisfy
inval
invitations
heartily
susp
meetings
degr
objects
waited
creating
creatures
expressing
expression
hush
encouraged
##urious
concerns
acknowledgment
uncertain
prosper
slighted
modest
alarming
approaching
beds
evident
blunders
unexception
carrying
eighteen
collection
unfortunately
elder
performance
improvement
disturb
possession
forbearance
terror
unnecessary
boarder
censure
tete
tuesday
ungracious
conscience
meanwhile
aut
domest
free
ge
gain
latter
sending
takes
vouch
yards
##no
##cence
##ering
noble
##imp
##idence
##adable
deceived
save
start
##icing
perm
quitting
dissu
composed
happiest
precious
afterno
##ancy
##ounter
##roy
kinder
interval
accident
downright
refr
courage
thankful
excuses
prevailed
declared
liking
excellence
explain
regrets
working
estim
estate
blessed
blushed
tenderness
effects
sucklings
profession
utter
rapt
destroy
numbers
calmness
betrayed
thirty
involved
confirmed
indignation
encounter
unequal
provoking
vulgar
sleep
prudence
acquiescence
suspense
autumn
domestic
afternoon
mixt
pair
wall
##mes
##ibly
##ys
##zz
##eration
##att
##ism
nodd
reck
safer
myst
lover
amount
##osite
abomin
##iling
coar
fever
thoughtful
##ables
leg
project
fires
carried
ended
charitable
gentility
boiled
detained
remove
exciting
remembered
pleasantly
opposite
constant
apart
schemes
attempts
belonged
motion
succeeding
contrary
ceased
rude
sinking
convenient
strik
animated
according
puzz
envy
seized
deficient
dignity
bitter
rendered
argument
welcomed
substance
source
solicitous
politeness
mixture
reckon
abominable
cards
dry
furn
gil
mag
names
ple
pace
rise
sought
vo
wis
yield
##ember
##bru
##lanted
##sor
##ham
##oul
topic
##lli
##iter
noise
hero
##vel
##lying
reject
depl
wealth
saved
amusing
perpet
moreover
liable
failed
unwh
ungr
abund
upright
across
compet
febru
otway
apple
##olesome
letting
##anced
contented
cares
native
engross
club
wondering
decis
directed
pointed
needless
##picious
##orthy
shewing
gentlemanlike
acknowledging
brilli
humoured
strugg
windsor
relate
plainly
blessings
occupy
calcul
presumption
cautious
contrast
nerves
unworthy
despair
visitors
disturbed
sweep
slowly
speedily
unsuspicious
article
unreserve
misfortune
september
gilbert
unwholesome
ungrateful
february
aver
bare
eart
fold
joke
priz
portion
ver
wine
##ket
bell
##arged
shi
##oman
ange
##ically
spared
spending
lips
disgra
uncom
unper
uncomm
goodness
season
##ape
compose
##ushing
granted
##about
##fortable
arrow
blood
subd
appearing
retire
visited
propose
affairs
senses
sensibility
train
rights
complac
warmer
decor
thanked
situations
determine
necessarily
counsel
relative
privile
dropt
grief
shocked
ridic
ventured
entreated
hesitated
exertion
apprehens
unexpected
raised
rejo
establishment
travel
lawn
mixed
tranquill
trembling
hazard
refresh
chiefly
indulgence
softened
restored
anticipated
concurrence
unfair
overpowered
november
sympathy
imprudent
satisfactory
correct
irresistible
raptures
brilliant
earth
angel
uncomfortable
uncommon
bili
cous
fal
fill
gather
gown
hos
list
vast
xii
##pap
##gent
##uit
##for
thick
##onst
##isis
##aring
inn
heir
##ric
sofa
##ode
##ades
conund
defer
wear
front
fruit
misc
exper
##atefully
discl
jump
gratefully
##ung
##rum
bathing
offers
bloom
momentary
charity
confused
truer
crisis
acted
probable
social
hurried
explore
request
##ouche
relations
suddenly
speeches
congratulate
contrad
conclude
distinctly
catching
gravely
principally
impatience
basket
raising
benef
announce
barouche
shrubb
landau
pursuit
drinking
repetition
surmise
penetration
learn
invalid
unexceptionable
mystery
bilious
false
hosp
##forward
conundrum
shrubbery
ast
aid
bab
bought
dir
damp
fame
gained
hod
jeal
penc
sal
swell
taught
virt
##psi
##ming
##rated
##rase
##light
##oor
##oining
##hod
##joining
##erous
##orge
##reen
##stairs
##stem
force
##idable
reverse
chances
stor
station
stud
ener
quit
unt
unm
unk
unlu
sex
adjoining
obtained
bred
longed
roast
impossib
impression
specul
overh
walks
considerably
lasting
engage
asks
glimp
refine
inviting
entit
resolving
promising
guard
strongly
remonst
gipsi
excited
mentioning
nights
discreet
method
conceive
system
proceeding
curious
delays
denial
anger
approached
preparing
materially
depressed
apprehension
relieved
foresaw
signific
measure
reconci
displeasure
phrase
vexation
mutual
restraint
reflections
paused
spoiled
ceremony
application
xviii
breath
luxurious
misunderstand
praised
popularity
george
abundance
competent
prize
retirement
baby
dirty
hodges
jealous
unluck
impossibility
glimpse
gipsies
double
fid
##ron
##woman
##ale
##jud
##eding
##isser
##ital
shaw
notions
##idious
##alog
##ested
cheek
amend
spru
##okes
##ffected
wholesome
##quality
resign
prejud
proving
##sip
ponder
impert
operation
preserved
blue
retired
desper
doubts
generosity
affected
agreeably
restlessness
wondered
decide
active
settling
remind
remiss
careless
colds
prevail
oppose
sufferings
charmingly
drawback
insin
ribb
mercy
pattern
uncon
requir
assisted
truths
losing
stopping
singing
unhe
unpardon
indulged
deny
presumed
grieve
observations
astonishment
heaven
depart
discovered
assurances
entertaining
despatch
measles
strict
rapidly
candles
accordingly
benev
established
travelling
prompted
irritation
swisser
conjectures
perplexity
procure
embarrassment
sorrowful
inequality
unaffected
alertness
discussion
uncertainty
refrain
sleeping
fireside
voices
decisive
complacency
apprehensive
pencil
speculation
fidget
shawl
spruce
swisserland
deemed
gates
hind
main
mouth
pal
sly
wid
wick
zeal
##gation
##sery
##ormed
bend
inex
aside
forth
##ctions
revi
conceived
demand
changed
fro
storm
enl
enli
##live
yours
diss
unus
unwell
june
thoughtless
##erty
beforehand
outward
twice
##umb
talks
implied
supplied
arrive
##root
##iven
contained
containing
hears
property
affair
obligation
informed
calls
accent
downstairs
commission
hardship
scold
exposed
promoted
forgiven
flow
donke
ess
bearing
gratifying
shews
headach
opposed
declining
quickly
##onscious
unconscious
remains
anxiously
slightest
offering
modern
model
related
confident
key
running
holds
earnestness
artless
thousands
separation
wretchedness
negli
becomes
books
apology
injured
avoided
foresee
foreseen
entertainment
basin
shoes
sketch
boasted
shrub
conjecture
pale
graciously
nursery
prosperous
vouchs
permitted
nodding
##abouts
arrowroot
study
wicked
unusual
bid
bond
dro
dwe
fate
game
ii
kings
nin
narr
rode
soul
tid
wet
wild
wright
##ton
##bing
##ivers
##dain
##erity
##inations
##lled
shaking
inher
##lend
notion
##semb
assemb
fore
##rible
ones
##imens
##urbation
##adation
deb
deaf
amiss
disper
disinter
disdain
unse
unnot
unsu
univers
seas
die
july
somewh
gra
##unk
##ract
youngest
talkative
supplanted
##comp
arriving
bateses
kindest
##isted
generous
imaginary
##retion
##acity
recall
advent
expose
approve
persuading
fanciful
brothers
##teen
horrible
exception
musing
pleasantest
##ustom
honoured
enjoying
occasioned
recommending
##ocked
conceited
patient
requisite
assisting
admirer
effort
fearful
distressed
communications
tendency
esteem
finish
unpret
trees
capital
belonging
riddle
preparatory
repeatedly
hesitate
destined
strengthened
sized
variety
sincerity
convenience
complaints
hastily
tranquil
ostler
stooping
cottage
perturbation
inconsider
degradation
plea
rejected
perpetual
decorum
benevolence
dwelt
assembled
disinterested
unnoticed
somewhat
ach
cre
dwell
darted
idle
lat
liter
pang
##ef
##lcome
##oat
##cal
##how
##uine
##ks
##ze
##isy
##itality
shape
noticing
##ste
##adows
dozen
meadows
cham
sauc
stretch
local
##aming
##orted
alas
alph
dissip
unwe
secl
##usal
intending
somewhere
somehow
##fies
residence
evenings
##ounds
longest
spec
arose
presence
##room
blank
assuming
genuine
gloom
allowable
recur
advance
resolute
promote
beautif
slave
elev
discretion
insp
insolent
pays
suspecting
below
brief
regretted
finery
events
delayed
inferred
joyous
occupation
treas
clearer
##suadable
attendance
endeavoured
comprehension
sighing
injury
various
sickly
devoted
marked
treated
consulted
consulting
nicely
softness
shameful
feature
rapidity
skill
cordially
defici
fatigued
build
brighter
procuring
witnessed
unlikely
abruptly
undertaking
deserving
deserves
punct
bewitch
roused
accidental
unpersuadable
ridiculous
tranquillity
experience
hospitality
overhear
misunderstandings
amends
desperate
departure
negligent
chamber
alphabet
unwelcome
seclusion
resolutely
beautifully
cult
der
fif
freed
hom
iii
na
pet
port
##pulous
##bted
##ls
##sum
##afe
threw
top
##edu
hang
beer
##itions
##itary
inch
inim
incess
whist
heated
aspar
##idity
##ctive
sober
##odig
##urity
prodig
sale
examp
##amation
##lies
quant
##itty
along
abilities
##ils
##ivete
indust
indub
##apt
grant
##abilities
level
plenty
indebted
brings
broke
##tens
##ancing
offended
offices
joint
believing
appearances
##agus
propriet
##ildered
charades
cloth
rightly
answering
affectedly
screen
addressed
fortunately
approving
humili
feelingly
formal
painful
fondly
fondness
playful
conversable
encourage
insensible
explained
questioned
path
grandpap
cleverer
exclamation
counter
madness
valued
indulging
proofs
intelligent
comprehending
principles
midsum
numerous
entreaties
scrupulous
pressing
varied
coxes
sounds
writer
kingd
divided
practised
collecting
transcri
animation
candour
moderately
unreasonably
altered
announced
suggested
ignorance
selfishness
errors
representing
representation
accompanied
designs
pronounced
punishment
bewildered
maintain
contempt
demure
surrounded
topics
disgraced
benefit
unsuitable
fifty
homes
naivete
inimitable
incessant
asparagus
example
indubitable
humiliation
midsummer
alive
ba
cru
cough
dent
dul
driving
gate
hit
hung
lect
mour
om
pushed
tree
upp
yell
##ply
##tz
##nut
##nown
##ia
##gance
##uous
##ume
shar
##lew
##omeness
foret
suits
suitable
relu
##vert
weigh
prose
chaise
chuses
stairs
perceiving
##oso
spot
space
sposo
whoever
##usable
woodhouses
appeal
attrib
obst
brisk
poign
black
blushing
##pless
subs
contrib
retract
caro
infant
infection
ending
fewer
understands
bestowed
allowing
expectations
dealing
oftener
##acing
advised
##anging
scatter
expedi
promises
prominent
boot
lessen
disparity
detail
guilt
cheap
flatt
floor
silenced
disappearance
papers
condes
simil
consequently
guessing
excluded
producing
county
##monious
privations
effectually
trem
alarms
clearness
avail
griev
educated
provision
inferiority
reproof
prepossess
preparations
concluding
submiss
device
connect
explanations
courtship
division
discoveries
safest
signify
foolishly
cooler
avoiding
amazed
amazing
vexed
examining
unwillingness
owed
owes
honestly
renewed
rousing
contempl
waltz
walnut
ingenious
cousins
disclosure
falsehood
astley
unknown
unlucky
requires
palp
enlarged
donkey
wickedness
cruel
dentist
dulness
upper
yellow
reluct
poignant
scattered
expediency
flattery
walnuts
aim
bord
fly
humph
iv
kitty
med
naming
od
rough
san
sources
triv
vig
wand
##emb
##bition
##bread
##rances
##riting
##nat
##nic
##writing
##iving
##lter
##lance
##airc
##head
##yer
##ule
##inced
##isions
##itly
##itate
nod
shark
shelter
asper
##iding
reapp
##urd
##ural
emotion
deed
weight
stokes
stairc
##ical
ambition
##ants
perception
disord
uncl
##quate
shoulders
sees
##aper
##ruction
dearer
resuming
resemb
prec
likewise
##ounding
impressed
job
hereabouts
##ivity
##ivoc
contrive
minded
comforted
oblige
handwriting
stray
stranger
glass
glaring
fortitude
refined
recent
spirited
openness
supersed
thanking
continually
continuing
surprizes
absurd
directions
accounts
humanity
smaller
beauties
sentence
##ceptions
headed
elegantly
##encies
inspect
quickest
breeding
claimed
construction
recollecting
introducing
tolerate
disagreement
draper
summon
capri
confesses
confession
provide
provided
endeavouring
principle
lawyer
eats
concluded
formerly
exertions
astonishing
submit
mama
heavens
apparently
devotion
flattered
divisions
nephews
animating
neglected
proposals
third
additional
fashioned
lamenting
sacrif
loudly
watering
impropriety
original
confirm
curtain
supplying
indisposed
unfit
december
dissuade
wallis
wiser
bella
privilege
stores
remonstrance
jealousy
cheeks
resigned
impertinent
ribbon
unpardonable
widow
frozen
headache
shrubs
drove
tidings
unpretending
latest
overhearing
odious
sanction
trivial
staircase
resemblance
superseded
bon
bow
ca
custom
dined
dedu
gar
hate
hating
mount
mutter
north
pounds
ven
war
wives
##tily
##mat
##boy
##net
##wife
##gy
##vag
##certain
##xter
##fere
thither
##enness
haut
##orious
##itute
##arch
##reci
whim
##change
##uting
##ets
##entive
ascertain
forest
##riously
rev
reward
reception
##verance
##maid
knocked
defi
deference
dexter
predi
##icious
##icated
amid
##ulse
##ulation
faces
discerned
unfe
uninter
littleness
partridge
acute
covered
died
worn
intently
friendliness
approp
gold
goose
pleases
ador
##abb
happening
##eared
usually
##racted
indef
longing
underrated
impud
hereaf
preser
moral
blow
subsequ
interfere
visible
##ccount
passes
caring
##ainted
proph
##istr
clos
serve
allowances
prettily
sins
refusal
foundation
affectation
agreeing
shortly
wonders
surpass
seemingly
throughout
behold
entertained
parley
excused
formidable
airy
airing
##ensable
##althy
convincing
monarch
drawings
huswife
planning
dixons
river
healthy
husbands
consequences
ballroom
humouredly
constancy
grows
esteemed
sadly
occurrence
extravag
relates
##month
blinded
confessing
runs
contrition
observance
disappointments
ridd
recovering
behindhand
irish
injure
excessive
quarrelled
calmly
apprehend
horseback
practice
practise
miserably
smoothness
skin
graceful
trifle
phili
blameless
inducement
twelvemonth
checked
examination
gardeners
perplexities
fatigues
accompany
indispensable
refreshing
solitary
pronounce
repetitions
renewal
exultation
unaccount
maintained
augusta
deliber
associate
associates
intellectual
improperly
demur
perseverance
critical
parents
dissuaded
magistr
deplore
struggle
barely
rejoiced
gathering
energy
entitled
significantly
unhealthy
maintenance
revived
vouchsafe
universally
prodigy
quantity
industriously
kingdom
bonnet
causes
deduction
hautboy
defiance
uninterrupt
appropri
hereafter
subsequent
extravagance
unaccountable
bis
cast
cured
dess
doub
deem
ecc
etern
fee
field
hed
id
ix
pom
pages
rout
rub
sang
##ement
##evi
##tion
##native
##nament
##will
##ilf
##iences
##ivering
##lo
##oves
##vened
##cere
##hor
##edience
##atively
##ony
##inger
##orable
##answer
##ases
noisy
shared
##omach
##entric
rever
##verty
allusion
alluded
allevi
conqu
concess
chatter
stout
stone
stomach
##ourishing
##liation
ornament
quality
quivering
##oph
sport
lip
discern
everywhere
agony
unb
unite
unanswer
abhor
goodwill
friday
##usible
applied
obedience
preced
##achery
poverty
imped
imparted
arro
delusion
block
considers
considerations
##ague
proposition
serle
series
glancing
gloves
instances
allowance
pretending
imm
secres
agreeableness
advoc
advanced
##angers
rested
##unted
lesson
lessened
##ixed
##ernal
excite
gladly
dinners
dancer
regarded
helped
attentively
purse
insen
sweetly
trial
fearfully
handsomely
communicate
slightly
##ashes
liveliness
sights
delicious
influenced
undes
treachery
plausible
concealed
concealing
solicited
desiring
##cuits
accomplishment
consenting
touched
touches
apologise
inquiring
successfully
cutting
compassionate
marking
coxe
quarrelling
courtes
absenting
divide
familiar
practising
footing
smoothed
neglecting
cooled
declares
amazement
alternative
pudd
whispered
liberality
pitied
pitiful
##ticoat
examine
steadiness
mutually
mutton
restrain
restrained
christian
principals
hasty
encumb
embarrassed
displays
lords
gracious
henceforward
indulgent
gaiety
exulting
correspondent
eggs
hesitatingly
threatening
surrounding
coarse
puzzled
reckoned
magn
deplorable
calculate
calculated
averted
folding
shift
subdued
subduing
contradi
untainted
reconciliation
pondered
reminded
insincere
unconcerned
strictly
enlivened
achie
saucy
specimens
deficiency
building
petticoat
portra
hanging
transcribed
contemptible
vigor
biscuits
dessert
eccentric
eternal
pomp
reverie
concession
arrogance
blockhead
secresy
advocate
encumbrance
band
bake
dar
faint
fles
medi
nic
oct
pan
rare
umb
##pent
##press
##path
##tru
##mith
##bod
##rity
##nes
##ib
##ich
##ictions
##gam
##gged
##lves
##ober
##aide
##hest
##dling
##uce
##inition
##onlight
##ench
##esse
##orily
##llenness
beat
beau
##iser
##itia
##rell
##cher
##ential
forlor
sullenness
anne
releas
reign
sold
##aled
##illed
##ightforward
alloy
doating
dead
deceive
welf
harbour
##othing
exh
extens
stock
stables
lovers
##ortions
enqu
perverse
##ulated
##oken
alac
disci
discomp
everyday
ages
union
selves
partially
beings
dict
dialog
owned
fairy
adel
obtru
dears
poison
poem
justified
replies
##umour
imposed
imputed
suppers
offend
arch
##onduct
preserve
overt
assent
##pline
passable
loveliness
proportions
lasted
##igning
acquired
string
cler
delights
securing
judicious
refer
gentlewoman
invent
interests
convictions
commit
advances
gets
restore
restless
scr
scale
exped
perrys
surpr
boil
backgam
dispens
incred
minor
behaving
remote
objections
vii
viii
dependent
complimentary
cheering
helpless
conduce
listening
insisted
likes
including
inclinations
##ieties
farthest
morrows
bread
effusion
humourist
proceedings
richly
richard
##ashed
profusion
suddenness
drop
drank
militia
preventing
luckiest
aven
capt
captain
joining
comprehended
regularly
congratulating
definition
venturing
prepare
trusting
freak
frightful
born
exerting
submission
farming
irks
comparative
successful
arrangements
flattering
relieve
straightforward
footpath
reproaching
shamefully
measures
volume
interruptions
moonlight
xvi
politic
possessed
strawberry
announcing
darker
whispering
qualified
suggestions
reflected
seizure
owing
unequivoc
pursuing
displayed
million
provoked
vulgarity
stoops
unsuspected
gaze
breathing
misunderstood
delivered
copied
cotton
criticising
threatened
projects
apartment
strikes
wisest
miscon
misconduct
contradiction
salary
virtue
virtues
refinement
breathe
inexpress
essential
forebod
inconsiderate
stretching
grandpapa
reluctance
wander
disorder
confirmation
venice
##reciating
unfeign
flesh
october
rarely
umbrell
forlorn
welfare
extensive
alacrity
discipline
discomposed
adelaide
backgammon
incredible
00
10
bent
bank
bott
cry
cost
dri
dangers
food
fus
falls
faster
gaining
ho
host
hue
killed
lin
lashes
pew
rom
sne
tart
tac
vill
viv
wound
wilf
##eur
##pired
##mal
##mming
##bal
##nful
##wood
##iation
##ipped
##go
##gur
##gular
##lim
##oving
##sc
##cation
##ais
##aunted
##uations
##umption
##ked
##fold
##erable
##incl
##inarily
##atious
##atives
##ites
##iture
##ars
##arse
show
shilling
##lete
##omer
##recy
##regular
##etite
##sted
##enteen
aslee
aspired
##rich
analog
##als
mult
##add
##ters
##terior
concise
##alled
comb
pred
changing
saving
##ectious
exec
exterior
missing
loin
amity
##anty
enable
enrich
##liest
splend
discourse
disincl
ungen
unnat
abusing
worsh
intol
gross
apply
applying
appetite
##eeling
plaint
plump
consist
consumption
##ached
undergo
marries
replete
##jection
##ancies
twofold
##comb
ardent
##rocation
##place
sublim
contriv
minds
retentive
doubtingly
affron
presented
infectious
subjection
confine
dealings
cromer
satisfies
security
secrecy
##vourable
committed
complais
respected
respecting
scanty
entrance
##untary
activity
##rences
flirt
pointing
pointedly
behave
removing
carefully
completed
dreaded
persuadable
favouring
gifted
handsomest
sentences
silver
amongst
determining
oppress
mermaid
patri
sweetest
sweetbread
commonplace
breaking
quietness
grandeur
admirable
fourteen
trimming
communicating
communicative
ordinarily
profits
seventeen
privation
joyful
calmer
clearly
exclaiming
snowed
snowing
rides
touching
improved
pressingly
irregular
price
sickness
urging
coxcomb
arms
horsewoman
footste
basis
embrocation
distinguish
distinguished
candid
birming
replying
broadwood
memor
fashionable
maids
envious
disgusting
irritated
louder
pitiable
harmless
involuntarily
augur
risks
felicities
remembrances
buried
rendering
hazle
ostensible
solace
undertakes
softening
ceremonious
lime
limited
applications
correspondence
cordiality
unfeeling
unfavourable
diffidence
complains
intellects
degrading
elderly
estimation
estimate
furniture
engrossing
verbal
innoc
weariness
reconcile
prejudice
despatched
scolded
dispersed
graver
elevation
inspir
bewitches
culture
freedom
playfulness
weighs
grievance
contemplation
reappeared
unclosed
mounts
preserving
closest
deliberately
impede
achieved
reigns
000
bottom
fuss
hoarse
linen
tacitly
vivacity
asleep
analogy
splendour
unnatural
intolerable
plaintive
affronted
flirtation
birmingham
28
ban
burn
bount
base
bick
blend
cent
dup
gre
hat
hood
hol
hired
kitch
lent
lod
lamp
ment
nar
nie
owe
pack
pushing
pulse
ring
renc
sli
ty
tis
test
tour
ve
vind
witt
wink
wounded
xi
##pret
##bable
##bating
##ran
##ius
##oli
##sing
##sue
##sses
##cry
##cension
##here
##uance
##zed
##inct
##oup
##nding
tosses
##ingencies
##escri
##llor
##anter
shower
shabb
ingrat
##leful
##lelight
shee
##chant
##chester
##changed
##charged
##uteness
##sellor
##cending
forfe
##iday
ant
butter
butcher
##urous
##hered
##estation
doom
doleful
meat
emot
emph
##ppic
devel
weary
comments
harsh
misinter
##otland
stag
started
lock
##amb
##antation
##lihood
##opment
manchester
fagged
discour
wholes
##elled
partake
acuteness
indiv
indist
indescri
cook
complying
##usions
grav
##unction
appe
attitude
attestation
pleasanter
lean
##erted
##erton
usage
##rapped
indelic
outcry
smell
surely
impart
offences
##ownish
blamed
kindled
contriving
contingencies
wrapt
desire
distaste
handed
engra
acquire
genius
strang
trunk
cloud
clownish
confer
gently
genteel
gentleness
accum
glanced
cred
##acle
famous
recently
commend
begins
reads
respectably
attaching
scor
score
scotland
expert
##unting
observer
tempers
thankfully
dispense
actual
detected
continuance
accounting
flame
flown
flower
fluct
humane
##seless
##aimed
##ernation
gips
follows
awake
excusable
##enses
disappro
excepted
expressive
opposition
characters
seriousness
plays
draws
##iplied
uneven
easier
stept
discont
insolence
insidious
simply
admiring
admires
recollected
constr
consternation
slighting
worked
matches
sighted
##iliff
profit
counsellor
confidant
earned
secrets
enjoyments
describing
duties
denied
denote
clearing
capabilities
purposely
leads
remarkable
holding
serviceable
unhappiness
congratulated
sufficed
reprobating
ceiling
desires
artlessness
eaten
separated
likenesses
hesitations
variously
fools
protection
protracted
marks
freshness
freshened
gravel
closely
undoubting
addresses
transpl
transition
transfer
betraying
conveniences
##mans
fatal
voluntary
reports
inconvenient
candlelight
hotter
amazingly
thirteen
pupp
illnesses
irritate
mixing
##ontre
involve
boasts
fluttered
parishes
failures
dignified
ceaseless
lands
attacking
tremblings
weakness
teacher
fetched
faithful
surmised
colours
anticipation
parcels
novelt
firmly
cope
diffident
##getic
deceit
persevering
stupidest
prosperity
modesty
disturbance
starting
uttered
bitterly
furnish
struggled
averting
refreshment
lists
jumped
learnt
swelling
energetic
significant
prejudiced
pondering
insinu
essay
unconsciously
sketches
debate
graham
treasure
punctual
punctually
proprietor
bailiff
hungry
lectured
##uousness
foretell
attributed
obstacle
briskly
condescension
submissive
bordered
aspersion
glasses
absurdity
inspection
caprice
sacrifices
curtains
muttering
whims
indefinite
impudent
philippic
demurred
uninterruptedly
hedges
surprising
multiplied
28th
banished
bountiful
bickerton
blended
centre
holiday
kitchen
mental
narrow
nieces
rencontre
tyran
vindicated
wittier
##preted
shabby
emotions
development
misinterpreted
discouragement
wholesomeness
individ
indistinct
indescribable
gravity
acquirements
strangest
fluctuations
gipsy
unevenness
philippics
tyrannic
bod
bang
bowed
bench
cher
cart
date
dil
deeper
ditch
flew
finger
gossi
hy
lest
lame
loth
mur
mant
mare
mond
nnight
ox
pink
pear
red
range
scept
tun
van
vac
wake
warr
xiv
##eg
##piece
##tse
##men
##mency
##banity
##nn
##warted
##iating
##ifice
##ipping
##gency
##oiling
##seness
##cil
##cue
##ah
##dence
##dra
##dote
##uity
thwarted
##inst
##edlessness
##ator
hann
##itim
##anically
##asible
shad
inade
inability
incomp
##ream
##render
notes
heedlessness
##chanically
##utions
##stancy
##entient
forci
##ril
##riend
sung
##irable
withdra
anec
reinst
atone
##uratively
##tering
allies
knitting
doct
mechanically
demer
wept
prol
chick
frau
##ects
evinced
##oting
exemp
exchange
stim
stol
stip
##icable
##icism
##icule
##amous
enem
perman
##osoph
mansion
spark
##ittal
lie
lies
##urels
##reated
unable
unqu
unmer
unfast
##ilosoph
parts
partly
##apse
##usively
feasible
diver
##aneous
timidity
gram
group
thoughtfully
adapt
##olved
##cket
rescue
premat
lets
proves
##austed
poet
pocket
twisted
##inea
justly
justify
fathers
repul
##umber
suppress
overc
overlo
overcharged
reticule
retreated
##ags
##istingu
infamous
##igator
acquittal
charges
closing
regulate
surrender
confide
imaginations
childhood
bestow
institute
instigator
random
recurrence
opens
illiter
illeg
equipped
shortening
circulate
respectability
##eeping
putrid
disputing
dispelled
detain
detaining
guinea
clean
cleared
clemency
flock
flourishing
career
giver
probabilities
objected
violent
powered
brotherly
needs
needed
needlew
airs
pleasantness
viewed
##ustice
attachments
player
playfully
disappointing
occasional
easter
listeners
purest
purple
##uries
suspicious
merry
paternal
intimates
acceptance
inquired
prosing
ensure
exclusively
windy
introduces
ordinary
civilly
council
##elpiece
eyeing
privately
singular
april
joyously
undec
undistingu
blinder
clearest
repeat
repeating
deepest
sucking
provoc
congratulatory
snows
encouragements
rationally
ceases
defence
defects
artifice
frightfully
consented
borrow
lightened
submitting
injunction
injustice
urged
urbanity
urgency
apprehended
unexam
figuratively
fastening
affording
inconstancy
positive
sixp
practicable
housekeeping
signified
despoiling
performer
moderation
polite
broader
beneath
phys
philosoph
##gression
alteration
seats
governed
blameable
laurels
lamented
disgustingly
throwing
loudness
checking
attractive
representations
curtse
laborious
fatigue
authorised
built
brightened
purchasing
accompanying
trembled
embarrassing
graces
designedly
indisposition
forbid
irresolute
teachers
terri
hurts
renewing
inev
prudent
corresponded
mildest
nursed
resisted
arguments
repentance
luxury
deliver
imprudence
satisfactorily
corrected
meals
praising
diffuses
learned
persevered
ingenuity
latterly
explains
coarseness
projected
striking
strikingly
dryly
engrossed
shifted
disgrace
counsels
privileged
cousin
unheard
demands
stormy
enliven
dissentient
dissolved
ninety
narrower
inherited
unseen
literally
dissipated
elevate
bewitching
alphabets
proprieties
coughing
sharp
sharer
similar
similarity
tremor
prepossessing
prepossession
falsehoods
aimed
nods
sheltered
forestall
dexterously
predict
adoration
riddles
magistrate
appropriated
doubly
rubber
unanswerable
undesirable
contradict
portrait
vigorously
medium
nicety
release
exhausted
enquired
dialogue
obtrude
overtaken
misconception
inexpressibly
foreboded
umbrella
villain
worshipping
complaisance
innocently
slice
forfeit
harshly
puppy
bodies
bangs
dilatory
murm
mantelpiece
monday
pearls
scepticism
wakefield
warrant
hannah
##itimacy
shadow
inadequate
forcibly
withdrawn
anecdote
reinstate
atonement
demerits
prolong
chicken
fraud
exemption
stolen
sparkling
unmerited
unfastidious
premature
overlook
illiterate
illegitimacy
needlework
undecided
undistinguishing
physic
philosophic
curtseys
aj
aud
bi
bul
bounded
dru
driv
dimens
dashed
flying
hu
hid
hither
hym
jokes
kite
kiss
lan
medit
mich
nought
oath
pou
pure
peep
row
rush
rarity
rushed
rumour
sle
tup
vers
wan
##equate
##pared
##tt
##tons
##mis
##mos
##mination
##bo
##bot
##bham
##bjection
##rants
##ived
##gs
##gal
##gain
##gressed
##objection
##vity
##vinced
##co
##cas
##cant
##cision
##cusable
##avour
##ael
##hough
##uation
##ugal
##ky
##fet
##fare
##jugal
##zy
##erun
##eroom
thaw
##inet
##inently
##nds
##atus
##onist
##ingen
##orary
##lls
##isable
##iters
##ariable
shy
inad
incommod
##let
##repared
##ghes
##gham
##utable
##see
##etically
##start
##ceives
asunder
forerun
##rick
##irm
##irth
##irons
butler
buttons
recei
receives
atmos
alluding
knit
knee
doci
empt
conjugal
deceptions
prison
chili
saff
saun
frost
frown
##ecting
harp
misapp
##otes
stain
stake
##ltry
misspent
amuses
amply
enab
mustered
spont
spinet
dish
discri
disingen
western
agric
##ffee
unobjection
##ongru
abol
abused
abbot
##osted
upstart
indoor
##apable
cobham
coffee
fried
fricas
feeding
dies
diet
timid
owning
appoint
fairest
goings
adequate
obtain
obsc
##oline
leather
levity
plague
##rue
dearly
ushered
process
indecision
branch
broken
ponds
repressed
robe
imposing
implanted
supplic
suppressed
offic
##coming
arises
##ivation
blunt
persist
##intend
assuring
##pled
believes
retort
desk
##ullest
##ullied
caroline
##agonist
distru
affable
affirm
lasts
sensib
presents
infli
acquitted
sorts
endanger
trades
##othec
regulated
accosted
accrue
answers
refusing
personally
recovery
invariable
hearty
equalled
advisable
elsewhere
shorten
worlds
readiness
respectful
superintend
expedit
temporary
boiling
decent
incongru
incapable
guide
guile
fling
flight
flakes
flavour
carelessness
equality
reasonings
smilingly
awoke
bearers
fancies
properest
waits
wavering
##ifullest
chapters
forms
gratification
fuller
prevalent
previously
sufferers
services
##istency
worthies
stands
elegancies
dancers
##enger
listener
planned
incline
quicken
suspiciously
##rehensible
merchant
mercant
swept
consciously
newspap
ensued
humours
produces
forgets
matched
employing
secondary
finale
plainest
hinting
##monial
apothec
conducting
companionably
breaks
tenderest
drunk
undaunted
##capes
unprepared
treble
denoted
denotes
escaping
belongs
quarters
sends
wretchedly
##phere
although
remarks
errs
##ifications
oddest
congratulation
controul
scarlet
opportune
eatable
total
pictures
improving
improves
crosses
fresco
male
peculiarities
injurious
successively
depreciating
apparatus
movement
devil
devoting
flatteries
sentimentally
pieces
bursts
messenger
employments
transgressed
unsullied
conveniently
basins
objectionable
strike
posture
featured
inconveniently
interruption
syllables
trifles
bargain
lazy
poplin
environs
suggesting
lengthened
pitifullest
troubles
examined
partiality
indisc
consoling
deservedly
quarrels
gradations
seize
currants
hasten
indignant
buy
accommodate
dignities
attacked
pursuits
weakly
##ecies
spoilt
chatty
resulting
matrimonial
fetching
pronouns
coloured
colouring
gaiters
limitations
restoratives
draughts
unnecessarily
nurse
concert
unfriend
acquiesced
horrors
songs
sympathiser
welcoming
classed
copy
irresistibly
decease
glowing
inconsistency
modestly
freeze
startled
permission
composedly
refrained
destroyed
nodded
coarser
legal
bitterness
furnished
pleading
yielded
heroism
rejection
perpetually
seasonable
ridicule
rejoined
tranquillised
fills
benefited
astray
unmixed
unkind
unluckily
impertinently
ribbons
unconvinced
unpardonably
fidgetiness
bends
inexcusable
reviving
artlessly
vouchsaf
ninth
narration
inherits
deafness
unsett
adventure
adventuring
fancifulness
creation
create
briefly
chambers
cultivation
deriving
derived
counteract
lecture
mourning
omission
foretold
subside
condescending
submissively
palpably
aimable
medley
garters
garrick
warfare
amidst
moralised
prophetically
prophecies
hautboys
alleviations
stomacher
sports
abhorred
immense
insensibility
courtesy
puddle
magnified
panic
beaufet
harboured
clerks
scrape
expedient
dispensing
minority
drops
freaks
irksomeness
politician
unequivocally
unfeignedly
sneering
execution
disinclined
grossly
confinement
antagonist
doomed
appeased
conferring
creditable
flowers
transplanted
landscapes
cherries
permanently
diverted
borrowed
ajar
bias
bulky
driven
dimensions
hughes
hymen
kissed
langham
michael
poultry
peeped
verses
##missibility
##board
inadmissibility
forerunner
receipt
atmosphere
docile
empty
prisoner
saffron
sauntering
misapply
enabled
spontaneous
discrimination
disingenuousness
agricult
unobjectionable
abolition
abbots
indoors
fricassee
obtaining
obscurity
supplication
persisting
sensibilities
tradesman
expeditious
guileless
mercantile
newspaper
apothecary
unfriendly
unsettled
michaelmas
agh
aus
aired
cow
cell
caps
cakes
das
dur
dub
dying
daring
et
ej
ere
fur
fish
flies
gest
gang
glee
green
hunting
ice
lain
limes
lacing
lapse
mal
pill
pic
page
push
rul
rice
riv
rows
ramb
sar
sash
tan
tied
useless
vag
win
wilt
##elf
##pher
##pite
##poc
##to
##tent
##ther
##thing
##tesse
##may
##mble
##mane
##mission
##bute
##rment
##rost
##rised
##risy
##nation
##iate
##ilton
##ienced
##lis
##lacing
##oated
##ogr
##sued
##smith
##vive
##vided
##cast
##corted
##ae
##afer
##avers
##hy
##hed
##hib
##dure
##dings
##uently
##ken
##ford
##eres
thrive
thriving
##ince
##inate
##inister
theod
torment
token
##eded
##edding
##ature
##atically
##onne
##onceived
##inging
##ese
##orous
##orbing
oftent
beet
beavers
##isen
##isition
##isons
##issible
##iscerned
##anim
##aries
shr
shedding
inse
noticed
shepher
wheres
wasted
washed
##vealed
##seers
##stead
##ionage
##ionably
##entiment
forwards
forcing
##riment
##ricted
##imen
##imney
##eremonious
##cts
reigning
reanim
revealed
issue
sooth
soothing
ate
##alis
##alier
##estable
##estionably
mud
##esses
##adings
knife
knives
conci
deafer
comtesse
prolog
chimney
samp
saunder
harmony
misled
exchanged
sting
store
stare
stream
stilton
##icament
anything
willingly
amor
thereabouts
##amper
##amorous
pervert
##liance
##liating
##liked
##osited
##ulations
hows
almane
liqu
disgu
dismay
disliked
aggr
agitate
aggression
##andum
##andise
unimp
unstead
##quet
##ellation
select
acrost
##aphy
covering
covert
composition
comprised
compliance
feigning
femal
jumble
worship
intrig
timber
grud
appellation
##olar
league
##pectedly
residing
respite
pretens
using
churchward
procl
prohib
likeliest
brown
brunt
##sibly
march
repress
replacing
root
rooted
imply
impass
supposition
##ounced
arisen
##rovided
overcoming
overboard
overseers
##ivated
blocked
assailed
assorted
satin
subord
##perable
interp
interfer
interchange
intermission
considerate
visibly
##beries
doubtfully
caresses
affix
affixed
##istic
handle
infancy
extended
genlis
hourly
stroke
tramper
charmed
clothing
clinging
clamorous
particularity
regiment
understandings
survi
survive
confound
confers
imagines
imagining
accustom
glory
glorious
##akened
cray
finds
##aculation
record
admits
admission
administer
admissible
commended
advising
##angled
wool
superadd
restricted
##fficient
entree
entangled
ladylike
tempting
motherly
dispose
disposit
detailed
detestable
situated
absorbing
approver
cheese
flushed
floated
fluently
reasonably
piquet
favourably
escorted
violence
depending
changeable
bears
paradings
useable
##versmith
##pices
gratify
silversmith
slumber
weekly
eleven
papas
characteristic
##parably
musician
conversations
standard
regards
realised
encourager
decline
insight
insult
merest
merriment
scholar
unceremonious
remaining
claiming
quieter
requisition
prosings
consequent
tribute
fixing
exclude
productive
preferable
livelihood
##ouched
arranging
secondly
finesse
occurrences
extracts
mortify
profitable
relation
madame
espionage
espalier
values
eventually
blushes
collation
confiding
##ubility
commanded
vainly
undue
undiscerned
unprovided
##gges
capacity
couplet
province
##ificent
regularity
motto
observant
observable
desirous
desirableness
defined
defended
defying
opportunities
evidence
separating
##aterial
##reetly
nonsenses
wednes
weddings
frighten
lighted
usefulness
pressure
iron
comparing
comparisons
deprived
departed
deposited
varieties
urgent
devote
market
dreaming
flatterer
unexpectedly
divined
fasten
affords
eighth
collections
signed
unsentiment
reproaches
proudest
volubility
placing
performers
raved
suitableness
partners
languid
vexations
vexatious
establish
travelled
baronne
brace
bragges
populous
disgusted
throws
promptitude
suggestion
pitch
protested
risking
originally
originating
deathbed
perplexed
hastening
indignantly
passionately
renounced
softer
failing
insuperable
insufficient
displaying
thinner
hazards
weaker
constituted
wisely
spoil
ostalis
sleek
tires
solidity
gaieties
resisting
triumphantly
stirred
substitute
unreserved
criticism
crowded
parentage
stupidity
threaten
seeking
invaluable
unexceptionably
ungraciously
geogr
gainer
courageous
puzzle
puzzling
argumentative
dryness
engrosses
sweeping
verified
verdure
unperceived
decorated
heiress
experienced
blooming
hospitable
damps
stationing
untouched
roasted
entitling
guarded
restraints
reminding
requiring
fidgeting
hindered
slyness
widower
demanding
outwardly
headaches
foreseeing
shrubberies
bids
oneself
universal
seaside
recalled
adventurous
inconsiderable
aches
literature
pangs
sauciness
dissipation
specimen
treasuring
deficiencies
grandpapas
omit
weighing
attribute
contribution
contributed
infantry
tremble
grievances
palpitations
bordering
sharks
asperity
deedily
preconceived
summoned
sacrificing
##matical
revive
dexterity
predictions
goldsmith
adored
ridden
magistrates
appropriation
idleness
alleviation
conquered
precedent
immaterial
insensibly
courtesies
pudding
magnificent
bandied
daringly
faints
dictate
dictated
avenue
avenues
captious
captivated
drifted
romance
wilfully
predicament
exteriors
ungenerous
sublime
contrivances
oppressive
mermaids
patriae
footsteps
candidates
memorandum
inspiration
duped
lodged
veils
ingratitude
emphatically
stagnation
leaning
smells
accumulations
scornful
constrained
confidantes
insinuate
foretelling
individual
hypoc
oxford
incomprehensible
enemy
unquestionably
grammatical
repulsed
singularly
provocation
prolonged
indiscreetly
aghast
auspices
cellery
dashing
durable
etc
ejaculation
erection
further
malt
pillars
picnic
rules
rival
rambling
sarcast
vagaries
wiltshire
theodore
tormenting
oftentimes
inseparably
shepherd
reanimation
soothe
conciliating
prologue
sample
saunders
liquor
aggrandise
unimpeded
unsteadiness
acrostic
females
intrigue
grudged
pretensions
churchwardens
proclaimed
prohibited
repressing
impassable
interfered
trampers
surviving
accustomed
recordable
superadded
dispositions
slumbering
unceremoniousness
wednesday
unsentimental
geography
hypocrisy
sarcastic
26
24
awe
bone
bows
bounds
cir
cather
cab
cert
cip
cabb
dart
dint
daw
ep
east
ecl
effic
fest
filling
gli
games
gaily
ginger
je
keen
ling
lic
lung
maps
mute
nourishing
oy
olive
ped
pull
pacing
rouse
rave
rud
sway
slic
sashed
ti
ta
ted
taut
tens
ters
tables
ult
vau
vel
voc
vowed
wat
wide
waded
wrapped
zig
##eard
##eck
##pear
##ported
##test
##tty
##ms
##min
##mate
##mity
##br
##bor
##bre
##brow
##bacy
##bleness
##ros
##rines
##roken
##wa
##wich
##iency
##ifies
##gence
##gued
##lore
##loy
##lins
##lamed
##ofore
##oose
##oidable
##spect
##vice
##cated
##hanced
##humour
##dy
##den
##des
##das
##kin
##fection
##foli
##za
##zags
##erate
##erning
##erfection
thy
##inity
##inuing
##inets
##nday
##ndwich
##atis
##atig
##enity
haber
##ara
##arge
##arried
##asked
shod
ship
shakes
ing
inward
##leen
heret
##rees
##recated
ital
sheets
shells
whirl
waste
hetty
##chard
##chanted
##check
##eteen
##sters
##stained
##enting
##entment
##entious
##entiful
##entatious
aspect
forever
forsw
##oward
##ithets
##ithwa
sunday
##ims
##idden
##ereys
##cting
##ctims
relic
soli
##odied
##odulated
##alence
##urance
##hers
##heres
mule
allusions
dog
doings
emulate
##ppet
conceptions
defe
##allop
prone
chusing
choose
sack
saves
sails
sandwich
##lfering
##ational
##otting
##otism
exten
stab
stars
##arto
##ourish
willed
##selfish
##amble
##antic
##antry
enum
encl
enmity
enhanced
enchanted
perusal
##liction
##libacy
whichever
##osser
orchard
quaint
quarto
##ulative
##oper
management
mania
##outed
spenc
sphere
spleen
spheres
aladd
lifted
libr
disser
disres
dismal
agrees
##ffereys
unost
unint
unemp
unav
unman
unste
unasked
uncheck
unselfish
abode
abdy
abstained
##quy
##quel
whence
##ellig
shoulder
goodnat
goodhumour
sealed
sequel
indicated
cock
cooper
greatness
nowhere
timed
##vings
appreciating
##ageable
##face
##faction
plants
plantation
plentiful
plotting
happens
preface
##races
##areful
underval
justest
##ners
rob
younger
##thur
##throw
implic
impending
impulse
implore
imperfection
argued
arthur
presides
presiding
##robor
overthrow
walker
##ivil
kindred
assume
asserted
meanly
belief
contain
contracted
contentment
intervi
wrap
wrist
vision
retros
desert
deserted
comfortless
carpet
poorly
homely
homewards
proposing
affability
affliction
##itudes
##istent
handled
cameos
inflamed
extric
##ollen
ends
endurance
maternal
tray
troph
clara
housebre
serenity
survey
generations
confuse
dealt
pretended
crosser
##aciously
imitation
randall
judges
personage
courses
hearts
adviser
##aution
readiest
##asonableness
woollen
respective
respectfully
scallop
scouted
expiation
entrapped
wonderings
turnip
direful
meets
deciding
lessons
busiest
thanker
disposing
incident
incumb
detached
detecting
guidable
minced
forgave
absences
approves
accountable
circumspect
flourish
humility
##aiming
colder
coldly
completion
completest
reasons
persuasions
pilfering
nearest
victims
awes
awakened
badly
wax
mistakes
remembering
horrid
gratifications
slav
fullest
muslin
muslins
prevalence
beginnings
##udes
sufferable
honours
honouring
fondling
players
drawers
ahead
##istened
hurting
standers
helping
helpmate
reality
roundabout
discerning
quickened
##ietudes
merited
patron
uncouth
uncivil
intimation
forwarded
forwarding
accepts
inquietudes
breast
cleverest
effusions
importation
fourth
possibilities
fearless
richest
workb
workmen
liveliest
instruction
finishing
instruments
instrumental
casement
modes
faultless
tenaciously
relating
relented
watches
boyish
teazed
eyebrow
privy
styles
inference
tenderer
disagreeables
commanding
commandingly
occupations
corals
corrobor
milmans
groundless
schemed
orderly
dutiful
gallantries
avowed
edition
waiters
attends
attendant
grievous
facts
educating
cautiously
solicitudes
professing
sufficiency
informs
reprove
reprobation
riding
celibacy
angles
masters
##ology
accomplish
rationality
wedging
##pskin
negative
sunsh
consents
lights
lighter
penury
apologised
mails
comparatively
vicinity
injuries
deprecated
variation
exceeds
exceeding
protected
excesses
blundered
dreamt
cautioned
figured
absented
discovering
fastidious
treats
##ocity
softly
transported
unsaid
unspent
laying
embodied
embraces
proudly
anna
nervousness
disengage
bird
moves
traffic
temptations
throats
liberties
polish
christened
existed
schoolroom
bars
barnes
braithwa
qualify
disgusts
irritable
irrational
lengths
protesting
boastful
steadier
conjecturing
coaches
gradual
tongues
perplexing
curs
curled
intentionally
fatiguing
failure
accommodations
brightest
constitutions
fellows
indisputable
baker
spoon
ranks
sleepless
results
resulted
sanguinely
solitude
undertaken
surmises
limb
limits
exultingly
restoration
penetrate
penetrating
labouring
labourers
largest
articles
articulate
solemnly
classing
copying
##ominated
diffuse
associations
discussing
awkwardnesses
neatly
inconsistent
tricking
adoption
terrors
gains
accidentally
estimated
wallises
##attle
amounted
void
heroine
decisively
needlessly
cautiousness
contrasted
folded
shivering
rejoicing
travels
hazarded
refreshments
filled
xiii
disclaiming
requesting
aids
salting
salted
swelled
stories
untoward
unmirth
unmarried
unmodulated
overheard
remonstrances
discreetly
methodical
fidgets
enlarge
dissatis
donkeys
confidential
dropped
nineteen
narrative
tidy
debt
disperse
dispersing
unseasonableness
efforts
unpretty
cream
dwelling
literary
dissipate
recurrences
inspired
alphabetically
portfoli
clothed
transcribing
contemptuous
mournful
mourners
obstinate
briskness
guilty
reproofs
waltzes
reluctant
medals
reappearance
unclosing
precision
precaution
capricious
mutterings
rewarded
indefatig
impudence
philip
demurs
uninterrupted
doubled
feebly
feebleness
idoli
route
##loquy
chattering
ornamented
unbroken
unbidden
unanswered
undesign
contradicted
petticoats
portraits
vigorous
dares
archly
scramble
expedition
dispensed
irksome
politics
unequivocal
unfeigned
romantic
wilful
combated
predominated
ungenial
consistent
sublimity
contrivance
patriotism
footstep
candidly
memorial
inspiriting
packs
testifies
sheep
sheepskin
wearying
indelicate
indelicacy
impartial
impartially
distasteful
engrafted
engravings
clouds
humanely
disapprove
discontent
discontinuing
novelty
novelties
gossip
redeem
tune
vanish
doctrines
stimulative
stipulation
overcareful
unexamined
sixpence
terribly
inevitable
rubbers
murmured
slept
tupmans
incommoded
officiating
distrust
inflicting
incongruous
vouchsafing
agricultural
gesture
subordination
interposed
administered
26th
24th
circles
catherine
cabinets
certified
ciphers
cabbage
darting
dawdling
epithets
eclat
efficacy
festivity
glibly
gingerbread
jeffereys
lingering
licentious
lungs
oysters
pedal
pulling
rudeness
swayed
slices
tippet
tax
tedious
tautology
terseness
vault
velocity
vocal
waters
widely
zigzags
##peare
##loyed
##dasher
haberdasher
shakespeare
heretofore
italian
whirling
forswear
soliloquy
defeat
sandwiches
stabbed
enumerate
enclosed
spencer
aladdin
library
disservice
disrespect
unostentatious
unintellig
unemployed
unavoidable
unmanageable
unsteady
unchecked
goodnatured
goodhumoured
cockade
undervalued
implicitly
interview
retrospect
extricated
trophies
housebreaking
scalloped
incidental
incumbent
circumspection
flourishes
slavery
uncouthness
eyebrows
corroborating
sunshine
braithwaites
unmirthful
dissatisfaction
portfolio
indefatigable
idolized
licentiousness
unintelligible
18
23
7th
8th
aust
bos
bury
baking
cit
cod
cree
cra
cav
dy
dated
driz
dust
fer
fun
fits
gal
gig
greet
hous
hateful
lined
lending
lamb
mim
mitch
nest
nailed
pent
pere
pall
pore
pul
pies
patch
pup
pantry
rack
rained
sed
sedu
ties
tie
tumb
ul
voted
vaunted
wain
ware
xix
##eer
##eful
##pens
##mons
##minary
##bow
##bility
##bred
##bband
##bridge
##briety
##rd
##rage
##nu
##ws
##iber
##iations
##iased
##gle
##gings
##gallant
##gym
##gered
##ole
##oid
##oak
##olt
##vid
##vant
##cer
##cises
##coat
##hic
##dge
##uously
##full
##form
##zle
##16
##eron
##eral
##erations
##erves
##erates
##eriously
##inctive
tom
##ederates
##atic
##atable
##atible
##atuation
##onness
##enes
##enza
##enuously
hay
haunting
##ors
##orce
##orney
##lle
##llards
bef
beam
##iten
##itence
##itably
##itating
##itarily
##arian
##asis
##asively
nomin
nobility
shan
shaded
sharing
inroad
inatt
insip
##legance
whiten
washing
heal
##ioned
##ayton
##entation
##entiet
##entrated
##rille
##imate
##ira
##iring
##iration
issued
##urs
##verings
mum
##advant
##adrille
doer
doat
mend
##ppery
converse
defies
dejection
dews
##bleached
nept
##ainable
frame
framed
french
evasions
##aks
stable
stability
##icine
##artened
##geon
enig
enorm
ennu
##oses
queer
quadrille
managed
spurn
disadvant
agitating
unment
unab
unatt
unchanged
ungallant
unbleached
##ellent
seminary
indolent
##oneous
greatcoat
compress
compressed
##usation
woods
divert
mighty
theirs
otways
##une
attained
attorney
attainable
##nesses
advers
adoring
##ols
##cken
resided
resem
reserves
preten
likelihood
console
outste
outrage
pollards
pools
twentiet
smartened
##ineated
underbred
wantonness
madeira
##felt
repellent
impose
impute
impair
speck
operations
delineated
##onding
prescri
morality
##ivial
blanch
assert
contend
contract
interior
retaining
visitings
womanly
passant
carries
poorer
propens
perforce
senseless
##itual
sets
##istence
presenting
infatuation
engages
endeared
strenuously
matting
clung
cloak
clayton
climate
housemaid
served
##apsing
image
confederates
accusation
instinctive
##ackened
cramp
##fts
##acities
secures
##asement
sinned
refuted
recited
invention
elms
elbow
illiber
heartfelt
affecting
equivoc
convivial
commiss
agreement
hardened
worldly
readier
woeful
sciss
screw
scenes
expenses
expiration
resolutions
decree
decides
lessening
backgr
follies
dispel
actions
forgiving
approval
flowed
persuasively
pigeon
gifts
objecting
powerless
bearer
park
excites
chaperon
waives
waiving
waverings
complimented
##ensward
stays
slackened
cheerfull
oppression
honourably
fondest
##ievous
regarding
regardless
condem
condolence
stealth
steaks
pursue
insane
excellently
ribband
sitters
questionable
##gmentation
intimately
commonly
commonest
admirably
trident
fearing
slightingly
works
fogs
prefers
preferment
saddle
seconded
final
introductions
occurs
mode
relapsing
##monies
##monary
influenza
##izen
counties
countries
companionableness
tenderly
habitual
joyfully
effecting
drown
military
blinds
summons
capacities
coupled
wretches
altar
errant
erroneous
educate
provoke
##ificial
professedly
middling
sighed
lowest
defend
artist
artificial
separations
simpleton
wretchedest
negatives
improvid
crossness
penitence
exercises
##mptorily
depression
variations
devoid
dreamer
hundreds
apprehending
flatterers
unexpens
youthful
##ocre
softest
entertainingly
transform
unsafe
reproachful
desponding
measured
stricken
placidity
nervously
inconveniences
sky
broiling
performances
cooling
accordant
possesses
southward
broadway
heartedness
declaring
languish
whispers
envied
enviable
qualifying
checker
porker
augmentation
coachmen
attract
indignity
failings
unequalled
purchased
pardoned
accompaniment
birthday
yeoman
descriptive
errands
ostentation
chatted
solitarily
proportionate
proportionably
ceremonies
inebriety
inelegance
applicants
conditioning
penetrated
eligibly
dressing
lowering
milder
mildness
concentrated
mischievous
maintaining
luxuries
stirring
boarding
discuss
carefulness
tricks
solicitously
politest
ingeniously
heightened
misfortunes
intervals
thankfulness
estimable
professional
rapturous
mysteriously
motionless
puzzles
yielding
abundantly
competence
struggles
avert
portionless
verse
complacently
apprehensively
correctly
listlessness
wearied
fruitless
disclaimed
conundrums
storeroom
stationary
entitle
remonstrated
systems
amendment
desperately
carelessly
hindrance
palatable
demanded
souls
debasement
esteeming
dwellings
lateness
gloomy
inspire
treasures
deranged
sobering
prodigies
quantities
industry
kingdoms
baly
baits
omitting
appealed
subsided
subsistence
contribute
availing
connecting
contemplate
palpable
medicine
wandering
disordered
northward
revolt
preserves
closer
deliberating
feeble
fields
hedge
conquest
conquering
unbiased
preceded
precedes
accomplishments
shifts
mediocre
nicer
##ibitions
released
doatingly
deadening
exhibitions
enquiring
dialogues
obtruding
overtake
clergym
referring
inventing
misconceptions
inexpressible
forebodings
umbrellas
sneers
tarts
##scot
combine
executing
disinclination
consisting
undergoing
dupe
grease
greensward
lodgings
ringing
vehic
ingratiating
emphasis
staggered
leaned
accumulation
commendation
scorned
constrain
insinuating
holidays
individually
indistinctness
carte
gossips
tunbridge
vanities
vacation
vacant
doctoring
stimulate
stipulate
overcame
unexampled
sixpences
terrified
inevitably
forestalling
murmurs
audible
audibly
drugs
drudge
appointed
appointments
affirmative
buyings
expedients
dublin
shrunk
soothings
disguise
crayons
keenly
extenuation
patroness
workbags
untowardly
1816
23rd
austen
bosom
burying
citizen
coddling
creep
craig
dyed
drizzle
fervour
funeral
gala
giggle
greeted
houseroom
mimic
mitchell
nestled
peremptorily
palliate
pulmonary
pupil
sedate
seduced
tumbler
ulcer
wainscot
nominal
inroads
inattentive
insipid
neptune
enigmas
enormous
ennui
queernesses
disadvantages
unmentioned
unabated
unattended
adversary
resemble
pretension
outstepped
twentieth
prescribed
blanche
propensity
illiberal
equivocation
commissions
scissors
screwed
background
cheerfuller
condemn
improvidently
unexpensively
transformation
yeomanry
revolts
clergyman
vehicle
ulcerated
bound
bash
cli
cust
cases
cattle
dw
dus
dating
dump
ec
fed
fence
fare
finess
fitted
holy
lur
lone
lav
lingu
mock
mirth
pens
rip
rises
renting
tur
titt
tattle
ves
wreat
waking
wins
witty
wounding
##eu
##eat
##egr
##phered
##marian
##bl
##bol
##bare
##braid
##rot
##rast
##roke
##nip
##wing
##work
##iat
##ift
##iableness
##gitation
##geration
##gacity
##low
##lest
##loat
##ook
##oeu
##sive
##snip
##vit
##vad
##vass
##vring
##vatory
##aves
##aired
##hab
##hel
##hem
##king
##flow
##ervatory
thread
##inqu
##inction
##inist
##inating
tooth
haunt
haunted
##ored
##oried
##orned
##itance
##anne
##asies
novit
shine
shows
insi
incom
inhab
##rear
notch
wheat
##vement
##utal
##stasies
ascending
##riended
sup
##idote
##iriting
##irted
anci
##alf
##alified
##herence
muff
##ession
##adorned
allay
allied
knack
knock
doth
doated
deci
comment
chil
chang
chained
chancing
channe
sagacity
##ains
frag
exag
steep
steeper
stale
##ends
##endages
misses
loser
amiableness
##orting
enlight
enchant
##lived
##ligence
##rieties
orph
queen
##ulity
##ope
manoeu
##inking
##inkling
##inder
##indled
canvass
unadorned
##ilight
upstairs
upbraid
acre
acced
coast
cogitation
composing
feed
diligence
integr
intends
##keys
owner
appreci
appendages
adie
adair
adherence
##fulness
afloat
##olite
##olished
leaves
mostly
resident
resorted
resorting
preached
##earing
usher
conservatory
outgr
outlived
broth
brutal
twinkling
twilight
smoke
repast
repute
repaid
repreh
##umination
impolite
begs
begging
offending
officious
arrear
presuming
overrated
overflow
##ivance
bloss
blaming
##perience
##perbol
intermedi
retain
desult
hopeless
passive
carrot
pemb
##action
extend
extinction
##oyance
enduring
genial
strangers
mathem
clover
imaginist
accuse
accused
accession
gloried
expectant
smiths
crushed
##fton
##fting
recital
recantation
invites
##ordancies
illumination
advancing
shortness
##xts
complained
eyel
circular
scream
##plete
boils
backward
bushel
disputable
dispiriting
detach
miniat
flirted
beheld
behalf
equals
parsnip
formation
##ensical
silently
disappearing
slap
slope
column
created
sons
elect
pained
##cribe
conversed
roundly
discordancies
pursued
inclines
explored
quicker
##olded
##arked
remainder
brewing
richards
foppery
losses
increases
finis
orders
mortifications
relapse
relenting
relinqu
plainer
delicately
apiece
commands
especial
corn
drain
advantageous
undone
welch
groundwork
secretly
unpolished
purport
purposes
presumpt
confessed
prince
##ificance
endeavours
sighs
lawfully
##gnificance
ceasing
felling
lowly
creditably
nonsensical
destination
astonish
##ccessfully
successless
deposit
devise
protecting
pastures
connivance
dreams
sounded
courts
closet
divested
undoubted
foresight
consultation
transgression
transaction
reproached
shopping
despaired
parlours
annoyance
mistresses
skilf
interrupting
raving
streets
broadly
collectedly
publicity
inducements
bravad
puff
liberally
pitcher
swift
earliest
protestation
improprieties
speedy
shrugged
reflecting
confirming
curve
curse
teased
texts
encumber
landed
termination
severity
procrast
honesty
forbade
witnessing
sorrowfully
teaches
abruptness
undertake
undertook
shops
conditionally
corresponding
eligib
labours
anticipating
unfolded
triumphant
alliances
sympathise
discussed
spreading
ingenuousness
utterance
amounting
feverish
reckoning
gilberts
prized
portioning
privileges
jumping
baskets
invalids
salt
studied
unmarked
misunderstanding
resignation
prejudices
prevails
unconcern
benevolent
bending
inexperience
hardships
negligence
inheriting
inheritance
debased
unsuccessfully
inconsiderately
clothes
obstacles
subscribe
tremulous
contemplating
vigour
veneration
unfelt
idlest
routine
stoutly
ornaments
impediment
familiarise
graciousness
achievement
stockings
surprise
drills
drifting
village
combined
worshipped
consistently
complaisant
innocent
grey
hatred
packet
testifying
testify
antidote
appease
conferred
credulity
disapproved
disapprobation
transplantation
hyperbol
incompatible
enemies
lieu
lieut
unqualified
grammarian
repulsive
flocks
provocations
puppyism
physician
meditated
meditations
meditating
sleety
tupman
incommoding
dishes
officer
bluntness
distrusted
inflicted
incongruity
drunkenness
quarrelsome
vouchsafed
agriculture
cowper
dubious
winning
shrinking
disguised
crayon
insulted
sacks
robin
robbed
turnips
grievously
undesigned
undesignedly
impartiality
cavil
dusty
##atician
befriended
assertion
bashfulness
clifton
custard
dwindled
dusk
ecstasies
finessing
holyhead
lurking
lonely
lavished
linguist
pensive
ripening
turkeys
tittle
vessel
wreath
##blains
threadbare
haunts
novitiate
insignificance
incomplete
inhabited
ancient
muffin
deciphered
chilblains
changes
channel
fragrance
exaggeration
enlightened
enchanting
orphan
manoeuvring
canvassing
acceded
integrity
appreciate
adieus
outgrown
reprehension
overflowing
blossom
intermediate
desultory
pembroke
mathematician
eyelashes
miniatures
richardson
relinquished
presumptuous
skilful
bravado
swiftly
encumbered
procrastinating
eligibility
hyperbolical
